#ifndef MODEL_H
#define MODEL_H

const unsigned char model[] = { 0x20, 0x00, 0x00, 0x00, 0x54, 0x46, 0x4c, 0x33, 0x00, 0x00, 0x00, 0x00, 0x14, 0x00, 0x20, 0x00, 0x1c, 0x00, 0x18, 0x00, 0x14, 0x00, 0x10, 0x00, 0x0c, 0x00, 0x00, 0x00, 0x08, 0x00, 0x04, 0x00, 0x14, 0x00, 0x00, 0x00, 0x1c, 0x00, 0x00, 0x00, 0x8c, 0x00, 0x00, 0x00, 0x0c, 0x01, 0x00, 0x00, 0x7c, 0x19, 0x00, 0x00, 0x8c, 0x19, 0x00, 0x00, 0x0c, 0x28, 0x00, 0x00, 0x03, 0x00, 0x00, 0x00, 0x01, 0x00, 0x00, 0x00, 0x04, 0x00, 0x00, 0x00, 0x52, 0xe5, 0xff, 0xff, 0x0c, 0x00, 0x00, 0x00, 0x1c, 0x00, 0x00, 0x00, 0x3c, 0x00, 0x00, 0x00, 0x0f, 0x00, 0x00, 0x00, 0x73, 0x65, 0x72, 0x76, 0x69, 0x6e, 0x67, 0x5f, 0x64, 0x65, 0x66, 0x61, 0x75, 0x6c, 0x74, 0x00, 0x01, 0x00, 0x00, 0x00, 0x04, 0x00, 0x00, 0x00, 0x68, 0xff, 0xff, 0xff, 0x11, 0x00, 0x00, 0x00, 0x04, 0x00, 0x00, 0x00, 0x08, 0x00, 0x00, 0x00, 0x6f, 0x75, 0x74, 0x70, 0x75, 0x74, 0x5f, 0x30, 0x00, 0x00, 0x00, 0x00, 0x01, 0x00, 0x00, 0x00, 0x04, 0x00, 0x00, 0x00, 0x5a, 0xe5, 0xff, 0xff, 0x04, 0x00, 0x00, 0x00, 0x0c, 0x00, 0x00, 0x00, 0x6b, 0x65, 0x72, 0x61, 0x73, 0x5f, 0x74, 0x65, 0x6e, 0x73, 0x6f, 0x72, 0x00, 0x00, 0x00, 0x00, 0x03, 0x00, 0x00, 0x00, 0x5c, 0x00, 0x00, 0x00, 0x2c, 0x00, 0x00, 0x00, 0x04, 0x00, 0x00, 0x00, 0xb8, 0xff, 0xff, 0xff, 0x15, 0x00, 0x00, 0x00, 0x04, 0x00, 0x00, 0x00, 0x13, 0x00, 0x00, 0x00, 0x43, 0x4f, 0x4e, 0x56, 0x45, 0x52, 0x53, 0x49, 0x4f, 0x4e, 0x5f, 0x4d, 0x45, 0x54, 0x41, 0x44, 0x41, 0x54, 0x41, 0x00, 0xdc, 0xff, 0xff, 0xff, 0x14, 0x00, 0x00, 0x00, 0x04, 0x00, 0x00, 0x00, 0x13, 0x00, 0x00, 0x00, 0x6d, 0x69, 0x6e, 0x5f, 0x72, 0x75, 0x6e, 0x74, 0x69, 0x6d, 0x65, 0x5f, 0x76, 0x65, 0x72, 0x73, 0x69, 0x6f, 0x6e, 0x00, 0x08, 0x00, 0x0c, 0x00, 0x08, 0x00, 0x04, 0x00, 0x08, 0x00, 0x00, 0x00, 0x13, 0x00, 0x00, 0x00, 0x04, 0x00, 0x00, 0x00, 0x13, 0x00, 0x00, 0x00, 0x6d, 0x69, 0x6e, 0x5f, 0x72, 0x75, 0x6e, 0x74, 0x69, 0x6d, 0x65, 0x5f, 0x76, 0x65, 0x72, 0x73, 0x69, 0x6f, 0x6e, 0x00, 0x16, 0x00, 0x00, 0x00, 0x6c, 0x18, 0x00, 0x00, 0x64, 0x18, 0x00, 0x00, 0x50, 0x18, 0x00, 0x00, 0x3c, 0x18, 0x00, 0x00, 0x28, 0x18, 0x00, 0x00, 0x14, 0x18, 0x00, 0x00, 0xf4, 0x17, 0x00, 0x00, 0xa4, 0x17, 0x00, 0x00, 0x94, 0x15, 0x00, 0x00, 0x04, 0x15, 0x00, 0x00, 0xf4, 0x00, 0x00, 0x00, 0xec, 0x00, 0x00, 0x00, 0xe4, 0x00, 0x00, 0x00, 0xdc, 0x00, 0x00, 0x00, 0xd4, 0x00, 0x00, 0x00, 0xcc, 0x00, 0x00, 0x00, 0xc4, 0x00, 0x00, 0x00, 0xbc, 0x00, 0x00, 0x00, 0xb4, 0x00, 0x00, 0x00, 0x94, 0x00, 0x00, 0x00, 0x74, 0x00, 0x00, 0x00, 0x04, 0x00, 0x00, 0x00, 0x56, 0xe6, 0xff, 0xff, 0x04, 0x00, 0x00, 0x00, 0x60, 0x00, 0x00, 0x00, 0x0c, 0x00, 0x00, 0x00, 0x08, 0x00, 0x0e, 0x00, 0x08, 0x00, 0x04, 0x00, 0x08, 0x00, 0x00, 0x00, 0x10, 0x00, 0x00, 0x00, 0x28, 0x00, 0x00, 0x00, 0x00, 0x00, 0x06, 0x00, 0x08, 0x00, 0x04, 0x00, 0x06, 0x00, 0x00, 0x00, 0x04, 0x00, 0x00, 0x00, 0x01, 0x00, 0x00, 0x00, 0xeb, 0x03, 0x00, 0x00, 0x0c, 0x00, 0x18, 0x00, 0x14, 0x00, 0x10, 0x00, 0x0c, 0x00, 0x04, 0x00, 0x0c, 0x00, 0x00, 0x00, 0x7e, 0x30, 0x78, 0xac, 0x51, 0xcb, 0xdb, 0x40, 0x02, 0x00, 0x00, 0x00, 0x02, 0x00, 0x00, 0x00, 0x04, 0x00, 0x00, 0x00, 0x06, 0x00, 0x00, 0x00, 0x32, 0x2e, 0x31, 0x39, 0x2e, 0x30, 0x00, 0x00, 0xc2, 0xe6, 0xff, 0xff, 0x04, 0x00, 0x00, 0x00, 0x10, 0x00, 0x00, 0x00, 0x00, 0x00, 0x00, 0x00, 0x00, 0x00, 0x00, 0x00, 0x00, 0x00, 0x00, 0x00, 0x00, 0x00, 0x00, 0x00, 0xde, 0xe6, 0xff, 0xff, 0x04, 0x00, 0x00, 0x00, 0x10, 0x00, 0x00, 0x00, 0x31, 0x2e, 0x31, 0x34, 0x2e, 0x30, 0x00, 0x00, 0x00, 0x00, 0x00, 0x00, 0x00, 0x00, 0x00, 0x00, 0xc0, 0xda, 0xff, 0xff, 0xc4, 0xda, 0xff, 0xff, 0xc8, 0xda, 0xff, 0xff, 0xcc, 0xda, 0xff, 0xff, 0xd0, 0xda, 0xff, 0xff, 0xd4, 0xda, 0xff, 0xff, 0xd8, 0xda, 0xff, 0xff, 0xdc, 0xda, 0xff, 0xff, 0x1a, 0xe7, 0xff, 0xff, 0x04, 0x00, 0x00, 0x00, 0x00, 0x14, 0x00, 0x00, 0xa0, 0x1c, 0x72, 0x30, 0x43, 0x2f, 0xbe, 0x32, 0xb0, 0x24, 0xc3, 0xf2, 0x2c, 0x94, 0xda, 0x02, 0xbd, 0xdb, 0xbe, 0xbd, 0xa5, 0xa2, 0x1c, 0xb5, 0xf6, 0xdb, 0x28, 0x90, 0x35, 0xbb, 0xb3, 0xf7, 0xb1, 0xc3, 0xb5, 0xea, 0xee, 0xfa, 0x35, 0xa9, 0xa9, 0xd2, 0x13, 0x46, 0xd2, 0xac, 0xdb, 0xd2, 0x26, 0xa6, 0x13, 0xd5, 0x0b, 0xee, 0xed, 0xa8, 0xd9, 0x42, 0x17, 0x10, 0x28, 0x07, 0x14, 0xd8, 0xdf, 0xb1, 0x5d, 0x46, 0x36, 0x05, 0xb3, 0xf5, 0xbf, 0x12, 0x1d, 0xea, 0x1e, 0x36, 0xfd, 0xbd, 0xeb, 0x48, 0x26, 0x1e, 0x88, 0x1b, 0x48, 0xee, 0x0f, 0xd7, 0x44, 0x92, 0xee, 0xa0, 0xa7, 0xd4, 0x38, 0x09, 0xda, 0xb7, 0xc4, 0xbd, 0xeb, 0xb2, 0x4d, 0x64, 0xff, 0x8c, 0xa4, 0x06, 0x0e, 0xe8, 0xff, 0x58, 0x27, 0x27, 0xe8, 0x03, 0xde, 0xe4, 0x15, 0x38, 0x69, 0xe6, 0xac, 0xec, 0x9c, 0xe8, 0x22, 0x4e, 0x07, 0x35, 0xc5, 0x2d, 0x14, 0xc8, 0x25, 0x4a, 0xf8, 0xa9, 0xa6, 0x0a, 0x26, 0xdc, 0x2b, 0x59, 0x5e, 0x39, 0xb3, 0xe0, 0x48, 0x10, 0x6f, 0x55, 0xfb, 0x7f, 0x69, 0xf0, 0x0a, 0xd1, 0x0b, 0xd3, 0x14, 0x2a, 0xd0, 0x2a, 0xe2, 0xee, 0xfb, 0x0d, 0xb6, 0xc1, 0xc7, 0x17, 0x00, 0x18, 0x3d, 0xf3, 0x4c, 0xce, 0xb6, 0x11, 0x04, 0x1f, 0xc4, 0x22, 0x2b, 0xe6, 0x03, 0xbd, 0x37, 0x42, 0x2e, 0xbd, 0xea, 0xf1, 0x27, 0x16, 0x34, 0xec, 0xb6, 0xdf, 0x2b, 0xd4, 0xf7, 0x18, 0xb7, 0x49, 0x37, 0x31, 0x3f, 0x22, 0x11, 0x4b, 0xd5, 0x1c, 0xd2, 0x07, 0x3d, 0xd5, 0x48, 0x1f, 0x43, 0x48, 0xf7, 0xee, 0x3c, 0x27, 0x3c, 0x1a, 0xdb, 0x10, 0xfa, 0x28, 0xde, 0xfe, 0x0e, 0x35, 0xfb, 0x41, 0x10, 0x4c, 0x3b, 0x0d, 0xe5, 0x43, 0xed, 0xf7, 0xbb, 0x20, 0xb7, 0x04, 0x0f, 0xe3, 0xd2, 0x1e, 0xe7, 0xe0, 0x3a, 0xcc, 0xbc, 0xf4, 0xc2, 0x28, 0x30, 0x14, 0x39, 0x1b, 0x46, 0xe3, 0x1a, 0x52, 0x4c, 0xc1, 0x14, 0x2b, 0x42, 0x09, 0xc6, 0xc4, 0x52, 0xde, 0x23, 0xd7, 0xe3, 0x2c, 0xeb, 0x2d, 0xb7, 0x3d, 0xe6, 0x3c, 0x23, 0x10, 0xea, 0x1e, 0xf3, 0xf1, 0x0f, 0x08, 0xd6, 0x49, 0x45, 0xf0, 0xe4, 0xe4, 0xc0, 0x58, 0x49, 0xef, 0x5a, 0xe0, 0x65, 0x1c, 0xda, 0x7f, 0x77, 0x5d, 0x14, 0x06, 0x29, 0xc6, 0x2d, 0xb6, 0x17, 0xa9, 0x3a, 0x1c, 0x1e, 0xc0, 0xee, 0xe1, 0xf7, 0x00, 0x05, 0xfd, 0xb7, 0x47, 0x94, 0x0c, 0xcd, 0x4f, 0xde, 0x00, 0xfe, 0x11, 0x9c, 0xee, 0xc9, 0xc9, 0xe9, 0x12, 0x3f, 0xcd, 0x15, 0xd6, 0xb1, 0xfa, 0xd8, 0x95, 0xcd, 0xde, 0x26, 0xf1, 0x55, 0x32, 0x4d, 0x5b, 0xfc, 0x63, 0x9e, 0x07, 0x1b, 0x04, 0xe3, 0x48, 0x09, 0x42, 0x09, 0x63, 0x70, 0x46, 0xd4, 0x59, 0x1d, 0x68, 0xae, 0xaf, 0x03, 0xbf, 0x49, 0x12, 0x53, 0xac, 0xf0, 0xc2, 0x0a, 0x71, 0x3e, 0xbf, 0x9c, 0xba, 0x53, 0xab, 0xba, 0xec, 0x65, 0xc3, 0x2d, 0xef, 0x3f, 0x14, 0x2e, 0x40, 0x2e, 0x45, 0xa9, 0xef, 0xd5, 0xc8, 0x57, 0xf0, 0x21, 0xf6, 0x2c, 0x2e, 0x17, 0xbe, 0x55, 0x16, 0x05, 0x2d, 0x42, 0xcd, 0x53, 0x2f, 0x30, 0x4b, 0xa8, 0x33, 0xea, 0x91, 0x1d, 0xa8, 0x32, 0x43, 0x2a, 0xdd, 0x2c, 0x1f, 0x0e, 0xfe, 0xc9, 0x43, 0x51, 0xa3, 0x03, 0x0e, 0xdd, 0xe1, 0xb4, 0x1a, 0xe4, 0xef, 0x42, 0x81, 0x07, 0xb8, 0x59, 0x2b, 0xfd, 0xc8, 0xe5, 0x4d, 0xbf, 0xe6, 0x0e, 0xe6, 0x0d, 0x23, 0xcc, 0xf7, 0x45, 0xa3, 0xcd, 0xbe, 0x09, 0x2c, 0x25, 0x3b, 0xce, 0xe4, 0x4c, 0xe3, 0x04, 0x11, 0xda, 0x54, 0x3e, 0x06, 0x44, 0x29, 0x3d, 0xaf, 0x3b, 0xbc, 0x56, 0xad, 0x11, 0x0e, 0xbc, 0xf7, 0x2e, 0xe8, 0xbc, 0x12, 0xb6, 0xd0, 0xb9, 0xec, 0x0a, 0xb9, 0xb3, 0x26, 0x33, 0x20, 0xd8, 0x34, 0x1d, 0x46, 0xd1, 0x22, 0xae, 0xcb, 0x1d, 0x92, 0xd4, 0xfd, 0x42, 0x1a, 0x48, 0xf8, 0xda, 0x36, 0xaa, 0xc9, 0x16, 0xd5, 0xf9, 0xce, 0xde, 0xaa, 0x20, 0xd0, 0x18, 0xbf, 0x99, 0x33, 0xe3, 0x21, 0x23, 0x24, 0xc4, 0xf2, 0xd6, 0xf0, 0x0b, 0xc6, 0xb1, 0x14, 0x31, 0x9d, 0xc3, 0xc4, 0x13, 0xe9, 0x0c, 0x2e, 0xd4, 0x16, 0xcf, 0x26, 0xa0, 0xb8, 0x46, 0x4e, 0x3e, 0xfe, 0xca, 0x28, 0xad, 0x36, 0x3a, 0xf7, 0x23, 0xc6, 0xb7, 0xf0, 0xca, 0x35, 0xc7, 0xc3, 0x33, 0x99, 0x39, 0xde, 0x9b, 0xb9, 0xac, 0x09, 0x33, 0x34, 0x35, 0xda, 0x06, 0xc4, 0x20, 0xfb, 0xe8, 0x98, 0xf8, 0xd5, 0x9f, 0xd3, 0xd0, 0x4f, 0xfc, 0x29, 0x18, 0x21, 0xc6, 0x05, 0x12, 0x17, 0xa4, 0x0f, 0x6e, 0x77, 0x21, 0x81, 0x10, 0x36, 0x9b, 0x13, 0xdb, 0xb9, 0xc1, 0x0f, 0xa6, 0x09, 0xa7, 0x34, 0x41, 0x66, 0x54, 0xd7, 0xb1, 0x00, 0x9a, 0xea, 0x04, 0x6e, 0xbe, 0xee, 0xb0, 0xad, 0x0e, 0xf4, 0x17, 0x01, 0xb8, 0x33, 0xf2, 0xc6, 0x9b, 0x4b, 0x1f, 0x55, 0x61, 0xec, 0x2f, 0x47, 0xe9, 0x57, 0xc7, 0xb2, 0x56, 0xeb, 0x02, 0xdf, 0x9d, 0xeb, 0x27, 0xd1, 0xe7, 0x17, 0xc6, 0xdb, 0x95, 0x53, 0xe8, 0xbd, 0xc1, 0x1e, 0xad, 0xde, 0xb1, 0xc7, 0xde, 0xfc, 0x5a, 0xce, 0xf7, 0x28, 0xf2, 0x0b, 0x02, 0xed, 0xba, 0xc5, 0xbc, 0x01, 0x05, 0xbe, 0xbd, 0x26, 0xe0, 0x03, 0xeb, 0xb7, 0xc6, 0x3d, 0xe3, 0x60, 0x3c, 0xf1, 0xff, 0x54, 0x07, 0x57, 0xec, 0x0a, 0xcf, 0x9d, 0xe9, 0x58, 0xd1, 0xfc, 0x6a, 0x30, 0x5d, 0xc5, 0xb3, 0xf2, 0x4b, 0x4d, 0x58, 0xe2, 0x17, 0x36, 0xcd, 0xc2, 0x33, 0xdd, 0x1b, 0x3a, 0x03, 0x81, 0x1f, 0x58, 0xe3, 0x02, 0x60, 0x32, 0xf7, 0x96, 0xce, 0x07, 0xaf, 0xdb, 0x5a, 0x30, 0xf8, 0x13, 0xc4, 0x36, 0xd8, 0x22, 0x5e, 0x65, 0xc9, 0x07, 0xc6, 0xe3, 0xa4, 0xeb, 0x5d, 0xb5, 0xf0, 0xab, 0xf9, 0x10, 0xea, 0xc4, 0xbb, 0xb2, 0x1d, 0xd7, 0xe6, 0x26, 0xd6, 0xfc, 0xd6, 0xfd, 0x3e, 0xfe, 0x4a, 0xfd, 0xbf, 0x94, 0xd6, 0xc6, 0xb8, 0x1b, 0xaf, 0x4e, 0xe5, 0xa1, 0x4e, 0xda, 0x23, 0x01, 0xa0, 0x49, 0xc2, 0x3c, 0xc9, 0x50, 0xff, 0xda, 0x56, 0x1b, 0xba, 0x54, 0x95, 0xdf, 0xf4, 0x55, 0xa0, 0xc8, 0xd8, 0x1f, 0x25, 0xae, 0x18, 0x68, 0xeb, 0x64, 0x60, 0x3d, 0xdb, 0xd2, 0x07, 0x03, 0xbf, 0xb3, 0x5b, 0xb3, 0x21, 0xdf, 0x28, 0xa7, 0x18, 0xb0, 0xb7, 0x60, 0xa8, 0xcf, 0x66, 0x1e, 0x5c, 0xa4, 0x49, 0xfe, 0xaa, 0xa9, 0x0c, 0xc2, 0xb1, 0x32, 0xe1, 0xeb, 0x2f, 0x46, 0xa0, 0x04, 0x40, 0x28, 0xfb, 0xaa, 0x53, 0xac, 0xa5, 0xce, 0xcf, 0xff, 0x59, 0x3f, 0xa2, 0x4a, 0xdc, 0x31, 0xb7, 0x08, 0xb5, 0xfd, 0x90, 0x48, 0xda, 0x48, 0xcc, 0xdc, 0x23, 0xbd, 0xa0, 0x36, 0xe6, 0x70, 0x18, 0x29, 0x19, 0xab, 0xd1, 0x2a, 0x60, 0xaa, 0xf1, 0xdb, 0xb0, 0x9c, 0xad, 0xd7, 0x5c, 0xb6, 0x42, 0x11, 0xc9, 0x79, 0x60, 0xc5, 0x5e, 0x49, 0xc5, 0x7d, 0x8c, 0x69, 0x33, 0x7f, 0x27, 0x5b, 0xad, 0xaf, 0xb4, 0xcd, 0x52, 0xe5, 0xe7, 0x7f, 0xb2, 0xc8, 0x4f, 0x58, 0x90, 0x23, 0xd8, 0xc7, 0x37, 0xc2, 0xd2, 0xe5, 0x2b, 0x92, 0xfd, 0x20, 0xb1, 0x24, 0x74, 0x29, 0x29, 0x2f, 0xa1, 0xfa, 0x35, 0xc9, 0xc9, 0x2c, 0x37, 0x1a, 0xa7, 0x47, 0xaa, 0x4d, 0xb6, 0x3f, 0x05, 0xe1, 0x90, 0x20, 0x27, 0x19, 0x42, 0xae, 0x1f, 0xa1, 0x50, 0xbe, 0x14, 0x17, 0x30, 0xb1, 0x4f, 0x04, 0x18, 0xd4, 0x4f, 0x27, 0xb3, 0xbb, 0xc5, 0x58, 0xe1, 0x39, 0xcb, 0x5b, 0xb4, 0x41, 0xf4, 0x4e, 0xef, 0x62, 0x3e, 0x15, 0x26, 0xad, 0x56, 0x0e, 0xbc, 0x36, 0x65, 0xf7, 0xe3, 0x39, 0x9b, 0x51, 0x4b, 0x35, 0x44, 0xad, 0xef, 0xc1, 0xeb, 0x14, 0x9f, 0x0b, 0x14, 0x06, 0xe3, 0xbf, 0xed, 0xe0, 0x2d, 0xd0, 0x37, 0xdd, 0xbb, 0x33, 0xaa, 0x39, 0xb3, 0xff, 0x49, 0x11, 0x54, 0x0b, 0x4d, 0x2e, 0x32, 0x65, 0x55, 0xb2, 0x5a, 0x03, 0xde, 0x36, 0xcf, 0x7e, 0x21, 0xd6, 0x40, 0x1f, 0x56, 0xb5, 0x5a, 0x1e, 0xee, 0x43, 0xfc, 0x5a, 0xf2, 0x21, 0xab, 0xca, 0x06, 0x0d, 0x1a, 0x16, 0xbd, 0xc7, 0x6a, 0xd0, 0xf6, 0xf3, 0x2a, 0xee, 0xe5, 0x12, 0xd2, 0x1f, 0xda, 0xea, 0x51, 0x20, 0xe2, 0x0c, 0xbe, 0x0e, 0xd6, 0x08, 0xdb, 0x1d, 0x00, 0x30, 0x10, 0xd8, 0x16, 0x0b, 0xdc, 0xe5, 0xfa, 0xc3, 0x47, 0xd5, 0x0a, 0x31, 0x3b, 0x20, 0xc1, 0xfc, 0x04, 0x1a, 0xfb, 0xce, 0xfc, 0xd9, 0xbb, 0x1f, 0x43, 0xfe, 0xe0, 0xe8, 0x33, 0x17, 0xb2, 0x1d, 0x28, 0xcd, 0x47, 0xe2, 0x54, 0x1c, 0xb5, 0xea, 0xcb, 0x2f, 0x3b, 0xc9, 0xe2, 0xe6, 0xcc, 0xe3, 0xd1, 0x01, 0x31, 0x29, 0x2a, 0x0f, 0xc1, 0x1d, 0x39, 0xf1, 0xce, 0xde, 0xd7, 0xd2, 0xc3, 0x34, 0xdf, 0xca, 0x45, 0x0b, 0x11, 0xd4, 0xd8, 0xba, 0x12, 0x45, 0x20, 0xfc, 0x40, 0x2c, 0xbf, 0x27, 0x34, 0x1a, 0x39, 0xc5, 0x2c, 0xb4, 0x31, 0xd5, 0xde, 0xcf, 0xd3, 0xe2, 0x01, 0xbf, 0xbd, 0x2c, 0x1e, 0x49, 0x05, 0x14, 0x0a, 0xce, 0xbe, 0xf7, 0xf3, 0xe2, 0x45, 0xd7, 0x34, 0xbb, 0xe5, 0x22, 0xe7, 0x40, 0x0a, 0x4a, 0x32, 0x09, 0x03, 0x2f, 0x17, 0xce, 0xd5, 0x2e, 0x2e, 0x1e, 0x18, 0xd5, 0xc6, 0xe1, 0x23, 0xe0, 0x27, 0x9d, 0x90, 0x81, 0xc8, 0x36, 0xb7, 0x69, 0x34, 0xe8, 0x38, 0xeb, 0xec, 0xb8, 0xab, 0x63, 0x4e, 0x3d, 0xf9, 0xca, 0xb7, 0xe2, 0x74, 0xea, 0xa7, 0xe6, 0x6f, 0xa4, 0x71, 0x7a, 0x25, 0x70, 0x38, 0x3b, 0x22, 0x3e, 0x1d, 0xd3, 0x45, 0xfc, 0x0e, 0xb0, 0x1e, 0xf5, 0xfb, 0x0e, 0xa0, 0xd8, 0xdd, 0xc8, 0x04, 0xf6, 0x51, 0xc9, 0xf4, 0xb0, 0x05, 0x18, 0xa3, 0x1f, 0x1c, 0xd5, 0xf3, 0x14, 0xc6, 0x1c, 0xec, 0xff, 0xd4, 0x1d, 0x2d, 0xd0, 0xac, 0xc3, 0xab, 0x70, 0xbe, 0x9e, 0xdb, 0xf8, 0x20, 0x49, 0x52, 0x24, 0x3f, 0x52, 0x42, 0x38, 0x58, 0xea, 0xb0, 0xea, 0x61, 0xae, 0x68, 0x55, 0x8e, 0xd9, 0xc7, 0xee, 0x0b, 0x05, 0x30, 0x50, 0x05, 0x76, 0x73, 0x10, 0x1e, 0xdd, 0xe6, 0xdb, 0x86, 0xc0, 0x5a, 0x04, 0xdd, 0xeb, 0x1a, 0x6e, 0xe1, 0x31, 0xd6, 0x5a, 0x5d, 0x4b, 0xbd, 0x09, 0xab, 0xfc, 0xed, 0xe1, 0x6d, 0x3a, 0x4d, 0xfc, 0x81, 0x22, 0xb9, 0x43, 0x6a, 0xc6, 0xa5, 0xa3, 0x3c, 0x33, 0xa3, 0x3c, 0x66, 0x1c, 0x28, 0x18, 0xbf, 0x76, 0x06, 0x33, 0x13, 0xab, 0x3c, 0xab, 0xc8, 0xcc, 0x7d, 0x7b, 0x4c, 0xa8, 0x1c, 0xcc, 0x57, 0xf7, 0xec, 0xa5, 0xfc, 0x3a, 0xe5, 0x13, 0x1a, 0x46, 0xb9, 0xc8, 0x44, 0xca, 0x45, 0xdc, 0x10, 0xbc, 0x39, 0x39, 0xba, 0xf1, 0x22, 0xdc, 0xe8, 0xd7, 0x18, 0xef, 0x26, 0x24, 0xda, 0xd6, 0xc4, 0xd6, 0xdd, 0x39, 0xf9, 0xfc, 0xf3, 0xfe, 0xe9, 0xde, 0xaa, 0xae, 0xdb, 0x5f, 0x50, 0x17, 0x2c, 0xbf, 0x13, 0xba, 0xf4, 0x12, 0xed, 0x42, 0xd8, 0x18, 0x18, 0x14, 0x30, 0xe7, 0xeb, 0x44, 0xdc, 0xb8, 0x2d, 0x2f, 0x11, 0x61, 0x2e, 0x32, 0xc1, 0xa4, 0xfb, 0xbb, 0x32, 0x21, 0xc8, 0x33, 0x26, 0xd1, 0x16, 0xb6, 0xdf, 0xf7, 0x3e, 0xcd, 0x4c, 0x0c, 0x34, 0x31, 0xfa, 0x63, 0xc0, 0x00, 0xd8, 0x03, 0x1b, 0xd8, 0xbe, 0x4e, 0xed, 0x00, 0x49, 0x09, 0x1c, 0x20, 0x45, 0xe1, 0xc4, 0xc2, 0x49, 0xb6, 0xa4, 0xed, 0xd6, 0xf4, 0xbd, 0x00, 0xd9, 0x32, 0xa3, 0xed, 0xfd, 0x59, 0x18, 0x36, 0xf2, 0x1c, 0xc5, 0x46, 0xa7, 0x0e, 0x0f, 0x39, 0x1f, 0xd2, 0x26, 0xb4, 0xbe, 0xd9, 0x0d, 0xab, 0x29, 0xf8, 0xdd, 0x23, 0x25, 0x4b, 0xee, 0x9f, 0xcf, 0x81, 0xf7, 0xfd, 0xa0, 0xfe, 0x34, 0x39, 0x0a, 0xcc, 0xa9, 0xf1, 0x41, 0xe5, 0x14, 0xe0, 0x0a, 0xad, 0xc2, 0xdc, 0xf1, 0x56, 0xe3, 0x01, 0x13, 0x47, 0x44, 0xed, 0x32, 0xaf, 0x33, 0xee, 0xc5, 0xf9, 0xc3, 0x04, 0xe1, 0xc5, 0x22, 0xd1, 0xf4, 0xed, 0xd7, 0x08, 0x28, 0x48, 0x48, 0x16, 0xf1, 0xc2, 0xb1, 0x11, 0xc6, 0x2e, 0xb1, 0x2c, 0xb6, 0x33, 0xbd, 0xe5, 0x38, 0xbe, 0xc0, 0xea, 0xce, 0x1f, 0x49, 0xc3, 0x19, 0x3c, 0xbb, 0xbf, 0xc7, 0x4a, 0x4d, 0x02, 0x0b, 0xf0, 0xb8, 0x04, 0x01, 0x48, 0xc4, 0xb7, 0x02, 0x40, 0xd8, 0xf7, 0x5a, 0xc4, 0xc3, 0xfd, 0x49, 0x25, 0x3c, 0xac, 0x63, 0x4c, 0xa5, 0x47, 0x59, 0x69, 0x4c, 0x40, 0xc8, 0x40, 0x1d, 0xb1, 0x41, 0x18, 0xea, 0xea, 0x46, 0x1e, 0x51, 0xf3, 0xf4, 0x28, 0x47, 0xab, 0x51, 0xcc, 0xe5, 0xfa, 0xda, 0x64, 0x53, 0x35, 0xdb, 0xa9, 0xfb, 0x2f, 0x2d, 0x68, 0x26, 0xd5, 0x11, 0x0b, 0x21, 0xe8, 0xcf, 0x40, 0x11, 0xd6, 0xc9, 0xe9, 0xec, 0x3d, 0xef, 0x25, 0xee, 0xb9, 0x2c, 0x26, 0xbe, 0xdb, 0xda, 0xec, 0xfb, 0x2a, 0x11, 0x81, 0x83, 0xb1, 0x94, 0xe9, 0xec, 0xc1, 0xd5, 0x22, 0xcf, 0x10, 0x37, 0xbb, 0x01, 0xbd, 0x45, 0xa8, 0xb4, 0x48, 0xf1, 0x45, 0xb6, 0x40, 0x15, 0x22, 0xc8, 0xbf, 0xbe, 0x39, 0xc2, 0x4e, 0xc2, 0x1b, 0x17, 0x24, 0x28, 0x49, 0xbd, 0x3b, 0xc4, 0xbd, 0x39, 0x00, 0x13, 0x21, 0x3f, 0xd4, 0xfe, 0xb7, 0xb5, 0xb4, 0xb9, 0x59, 0x38, 0xca, 0xd7, 0xcc, 0x16, 0xaf, 0xd9, 0x0d, 0x48, 0xac, 0x10, 0x10, 0x1d, 0xe6, 0x1b, 0xc1, 0xda, 0x39, 0xfa, 0xda, 0xa8, 0x03, 0x1e, 0x12, 0xa6, 0xb9, 0x5a, 0x16, 0x28, 0x33, 0x09, 0xde, 0xfa, 0xf5, 0xff, 0xf8, 0xd1, 0x2e, 0xd5, 0x5e, 0x3b, 0xd7, 0x3e, 0xbb, 0x46, 0x4c, 0x4d, 0x06, 0x49, 0x18, 0x3a, 0x1a, 0x07, 0xad, 0x25, 0x23, 0x0d, 0xf5, 0x08, 0x07, 0x07, 0xe8, 0x18, 0x55, 0xd7, 0x42, 0x3a, 0x39, 0xd3, 0xad, 0xb9, 0x12, 0x43, 0x45, 0x53, 0xe0, 0x19, 0xd0, 0x0e, 0x4c, 0x4b, 0x1a, 0x29, 0xbe, 0x44, 0x38, 0x18, 0x39, 0xcd, 0xfe, 0xc5, 0xe8, 0xc5, 0xb3, 0x23, 0x1a, 0xfc, 0x2d, 0xd8, 0xbc, 0xf0, 0x28, 0x95, 0xde, 0xdc, 0x81, 0x09, 0x9f, 0xac, 0x92, 0xc5, 0x38, 0xb5, 0x5c, 0x03, 0x00, 0xd4, 0x08, 0x1c, 0x12, 0x4a, 0x16, 0xe5, 0x5a, 0xbe, 0x06, 0x66, 0x04, 0x4e, 0xdc, 0x36, 0x40, 0x72, 0xef, 0xd4, 0x1c, 0x18, 0x4a, 0xf7, 0x16, 0x17, 0x0d, 0x18, 0xd2, 0x45, 0x46, 0x94, 0x43, 0x3f, 0xa7, 0x62, 0xf5, 0x2f, 0xfd, 0xd6, 0x4e, 0x1c, 0x6d, 0xd8, 0x3b, 0xe5, 0x3a, 0xac, 0xb3, 0xaf, 0x5d, 0x03, 0x58, 0xcb, 0x27, 0xbe, 0x17, 0x73, 0x36, 0xe9, 0xe1, 0x57, 0xbb, 0x8b, 0xb1, 0x66, 0xad, 0x5d, 0x1e, 0x54, 0x61, 0x44, 0x50, 0x38, 0xa8, 0x6d, 0x1e, 0x2e, 0xa4, 0xf4, 0xed, 0x21, 0x3f, 0xd4, 0xf1, 0xf6, 0xcd, 0x49, 0x2c, 0x1f, 0x43, 0x40, 0x01, 0xac, 0xb5, 0x19, 0xdd, 0xed, 0xc4, 0x68, 0x00, 0x05, 0x2f, 0x9a, 0x6e, 0xb8, 0x03, 0x1d, 0x1d, 0xee, 0xf8, 0xc0, 0xde, 0x46, 0x59, 0xb5, 0xc7, 0xd3, 0x5a, 0xb1, 0xb8, 0x3c, 0x69, 0xe5, 0x81, 0x94, 0xd3, 0x94, 0x2b, 0x4a, 0x4c, 0x16, 0xa4, 0xfd, 0xda, 0x8f, 0xac, 0xfa, 0xac, 0x25, 0xa1, 0xa4, 0x20, 0xec, 0x4d, 0x6a, 0xfb, 0x56, 0xb2, 0x1e, 0x49, 0x29, 0xeb, 0x71, 0x44, 0x15, 0x97, 0xc1, 0x2c, 0x9f, 0x5e, 0x6d, 0x4a, 0xa5, 0x25, 0xcc, 0x7c, 0x2c, 0x10, 0xfb, 0x18, 0x43, 0xc8, 0xe3, 0x56, 0x4a, 0x32, 0xbd, 0x7e, 0x0f, 0xbb, 0xaf, 0xa7, 0x61, 0x73, 0xab, 0x6d, 0xe7, 0x59, 0xf3, 0x98, 0x83, 0xb1, 0x09, 0xac, 0xe6, 0xca, 0x49, 0x9a, 0xea, 0xb6, 0x99, 0x4f, 0xc0, 0x3a, 0x72, 0x7d, 0xc7, 0xb2, 0xe8, 0x42, 0x75, 0x0a, 0x14, 0xa8, 0x18, 0xc9, 0xf2, 0x4a, 0xf4, 0x42, 0x16, 0x04, 0x09, 0x9d, 0x4e, 0xb3, 0xa1, 0x27, 0x97, 0xe7, 0xd2, 0x51, 0xd1, 0x20, 0xf6, 0x0c, 0xec, 0xb9, 0x90, 0xf9, 0x46, 0x53, 0xee, 0xe5, 0x4f, 0xd8, 0x2a, 0xc4, 0x56, 0xfe, 0xe9, 0x47, 0x09, 0x99, 0x68, 0xa1, 0x0c, 0xb1, 0x40, 0xfa, 0xb3, 0x06, 0xf9, 0xa2, 0x79, 0x14, 0xf6, 0x11, 0xe5, 0x18, 0xe9, 0x16, 0xee, 0x7d, 0x32, 0xa8, 0x5a, 0x49, 0x8b, 0x14, 0x1d, 0x42, 0xd9, 0x84, 0x2c, 0x06, 0x38, 0xfc, 0x6c, 0x7c, 0xb0, 0xa3, 0x85, 0xf8, 0x64, 0x72, 0x7f, 0x4b, 0x64, 0xca, 0xbc, 0xcc, 0xc1, 0xc1, 0xd1, 0x5f, 0x4e, 0xbe, 0x64, 0xd7, 0x8c, 0x46, 0xba, 0xdc, 0x43, 0xaf, 0xa6, 0xee, 0x3b, 0xbd, 0x36, 0x05, 0x6b, 0xed, 0x03, 0xc1, 0xe7, 0x33, 0x09, 0x5d, 0x61, 0x32, 0x16, 0x2a, 0x0a, 0xcc, 0x21, 0x24, 0xca, 0x20, 0xd0, 0xc7, 0x1c, 0xef, 0xf2, 0x12, 0xc1, 0xa3, 0x48, 0x52, 0x9c, 0x1c, 0x73, 0xc0, 0xef, 0xef, 0x9b, 0xac, 0x8f, 0x36, 0x35, 0x54, 0xd0, 0x33, 0x1c, 0xf6, 0x13, 0x23, 0xbe, 0x72, 0x29, 0x37, 0xf1, 0x32, 0xf8, 0xc4, 0xc5, 0x36, 0x69, 0x68, 0x2c, 0x3d, 0x8c, 0xbc, 0x01, 0x56, 0x4e, 0xf2, 0xd7, 0x52, 0x20, 0x54, 0x58, 0x28, 0x7f, 0x4b, 0xb5, 0x37, 0xc8, 0x62, 0x6f, 0x71, 0xb4, 0x97, 0x3a, 0x0f, 0x4d, 0x79, 0x64, 0x4a, 0x03, 0xf7, 0x39, 0x0e, 0xeb, 0x14, 0xc9, 0xe3, 0xf7, 0x9b, 0xf2, 0x4d, 0x97, 0xef, 0xe6, 0x7b, 0x5c, 0xf7, 0xc1, 0x4c, 0xc3, 0xc2, 0xce, 0x42, 0x59, 0xa1, 0xcb, 0xd0, 0xa1, 0x2a, 0xf4, 0x41, 0xcd, 0x0d, 0x05, 0xba, 0xa0, 0x06, 0xc4, 0x2f, 0x4a, 0x8f, 0x11, 0x52, 0x99, 0x7f, 0x6b, 0x46, 0x2a, 0xd9, 0x15, 0x62, 0x4b, 0x0f, 0x0b, 0xdb, 0xf2, 0x8b, 0xdb, 0xd4, 0x97, 0xfc, 0x57, 0x7a, 0x62, 0xc6, 0x58, 0x31, 0xc4, 0xaf, 0xae, 0x55, 0x47, 0x8d, 0xd0, 0xd2, 0x28, 0x54, 0xc7, 0x20, 0xcf, 0xc5, 0x4d, 0xf7, 0x4c, 0x35, 0xcb, 0x11, 0xc5, 0xf9, 0x04, 0x4a, 0xbc, 0xf8, 0xfb, 0x66, 0xaa, 0xd2, 0x86, 0xd5, 0x37, 0xa8, 0x56, 0x12, 0x08, 0xc9, 0x63, 0xcc, 0xcb, 0xe2, 0x4d, 0x30, 0x97, 0xf8, 0x47, 0x24, 0x17, 0xf8, 0x08, 0xd2, 0x01, 0x92, 0xc4, 0x48, 0x42, 0xed, 0xb4, 0xfd, 0x51, 0x2a, 0x97, 0x29, 0x3a, 0xec, 0xe7, 0xcd, 0xa9, 0x0d, 0xbe, 0x37, 0xaa, 0xda, 0xfd, 0xc6, 0xdb, 0x91, 0x5a, 0xb1, 0xea, 0x35, 0x32, 0x5d, 0xbc, 0xe3, 0xd8, 0x98, 0x52, 0x2d, 0xd6, 0x91, 0x09, 0x42, 0x3d, 0xbd, 0xe0, 0xa1, 0x0a, 0x92, 0x34, 0x95, 0x61, 0x2a, 0xe7, 0x0a, 0x1d, 0xb9, 0xde, 0x4b, 0xb6, 0xb5, 0xe4, 0x32, 0x02, 0x01, 0xbe, 0x81, 0xac, 0x1b, 0x01, 0x05, 0xbb, 0x15, 0xf7, 0x8e, 0x20, 0x9e, 0xba, 0x33, 0x5e, 0x9c, 0xae, 0x33, 0x6c, 0x90, 0xc2, 0x1a, 0xd8, 0x9d, 0xb1, 0x9a, 0x6f, 0xb2, 0xed, 0x0d, 0xa2, 0x08, 0xe1, 0xf0, 0x9c, 0x9c, 0x5d, 0x08, 0x25, 0xd8, 0xf8, 0x1c, 0x43, 0x4d, 0x2e, 0x18, 0xe3, 0xf7, 0x1a, 0xb0, 0xce, 0x68, 0xf0, 0x4a, 0xe3, 0xa5, 0x61, 0xbd, 0x0c, 0x3a, 0x50, 0xed, 0x12, 0xac, 0xc0, 0xd6, 0xc3, 0xef, 0xc5, 0xa7, 0x58, 0x96, 0xb2, 0x7f, 0x33, 0xcd, 0x70, 0x3a, 0x94, 0xc6, 0x64, 0x03, 0xf4, 0x0e, 0x00, 0xe8, 0x92, 0x4c, 0xc5, 0xe3, 0x09, 0xf5, 0xf3, 0xa2, 0x1f, 0x5a, 0xcd, 0x57, 0x12, 0xa6, 0x69, 0x19, 0x9f, 0x96, 0xac, 0x1b, 0x49, 0x30, 0xf2, 0xe3, 0x14, 0x4e, 0x4e, 0x08, 0xcd, 0xef, 0x0d, 0xdd, 0xf7, 0xe1, 0x15, 0x1c, 0xcf, 0xe9, 0x6d, 0x49, 0xa8, 0xb6, 0x62, 0x6c, 0x40, 0xd7, 0xb2, 0x03, 0x5d, 0x42, 0xd3, 0xe7, 0xd4, 0xb7, 0x2e, 0x35, 0xcf, 0xd5, 0xb0, 0x1b, 0xd8, 0xdc, 0xe6, 0xed, 0xe7, 0xf2, 0x92, 0x3e, 0xd9, 0xdc, 0x1c, 0xcc, 0xd6, 0xb7, 0x01, 0xe4, 0x20, 0x22, 0xc9, 0xc5, 0x18, 0x07, 0x51, 0xb9, 0x3a, 0xc7, 0x52, 0xd3, 0x8a, 0x28, 0x1d, 0x6f, 0xbf, 0xfb, 0x3d, 0x3f, 0xed, 0xea, 0x46, 0x7b, 0xd9, 0xda, 0xdf, 0xb8, 0x53, 0x40, 0x4d, 0x1f, 0xf9, 0xb7, 0xfe, 0x2b, 0xe7, 0x00, 0x32, 0x6d, 0xff, 0xbd, 0xe7, 0x01, 0x51, 0x9b, 0xaf, 0x20, 0xa9, 0x62, 0xe3, 0x15, 0xb6, 0xb6, 0xd4, 0xa8, 0x0a, 0xb0, 0x5e, 0xa7, 0x4b, 0xb1, 0x41, 0x3a, 0x55, 0xcd, 0x1f, 0xa2, 0x0a, 0xe8, 0xdb, 0xbc, 0x29, 0xb1, 0x63, 0x10, 0xd8, 0xdf, 0xa7, 0x4b, 0xfd, 0xc3, 0xbc, 0xa3, 0x02, 0x01, 0xfa, 0x05, 0x1c, 0xd6, 0x46, 0xac, 0x3c, 0x4d, 0x56, 0x39, 0xaf, 0x1b, 0x32, 0xe1, 0x4c, 0x2a, 0xda, 0xd2, 0xa7, 0xe8, 0xcb, 0xd9, 0x01, 0x43, 0xf4, 0x0c, 0x0c, 0xca, 0xb0, 0xeb, 0xff, 0xd3, 0x43, 0xb7, 0xdd, 0x1a, 0x1c, 0x02, 0x15, 0x4e, 0xb0, 0x40, 0x2d, 0xd8, 0x46, 0x08, 0xa4, 0xfa, 0x33, 0x68, 0x00, 0xbc, 0x19, 0x45, 0x46, 0x4d, 0x36, 0x14, 0x22, 0x27, 0xc2, 0x0e, 0xbc, 0x2f, 0x11, 0x35, 0xe4, 0x3e, 0xe6, 0xbb, 0xee, 0xe6, 0xc6, 0x1f, 0x3b, 0xaf, 0xb8, 0x9a, 0x37, 0x35, 0xeb, 0x5f, 0x4b, 0x54, 0x0b, 0xa6, 0xc1, 0x3e, 0xef, 0x5a, 0xdc, 0x43, 0xb2, 0x04, 0x0a, 0xab, 0xaf, 0x40, 0x33, 0x9a, 0x4c, 0x9e, 0x3b, 0xaf, 0xca, 0x6f, 0x9d, 0xba, 0x47, 0x0e, 0x36, 0x0b, 0xf1, 0x7f, 0x71, 0x41, 0x91, 0xf7, 0xce, 0xcc, 0x78, 0x20, 0x3d, 0xfd, 0xd9, 0x40, 0xa3, 0x3a, 0x39, 0x9c, 0x1d, 0xec, 0x1a, 0x58, 0xe1, 0xd6, 0x38, 0x81, 0x11, 0x9e, 0xa8, 0xe3, 0xf0, 0x71, 0x0a, 0x20, 0x9d, 0xcf, 0xc9, 0xbc, 0x5c, 0x22, 0xbf, 0xb3, 0x2b, 0xe1, 0xfc, 0xe5, 0xef, 0x2a, 0x13, 0xa0, 0xc3, 0x61, 0x5c, 0x72, 0xbd, 0x53, 0x5d, 0xc6, 0xc5, 0xf0, 0x9a, 0xdc, 0xc6, 0x0b, 0x4a, 0x24, 0x41, 0xca, 0xa8, 0x6a, 0x67, 0x75, 0x40, 0x9b, 0x49, 0x6d, 0x2d, 0xa3, 0x13, 0x37, 0x2b, 0x32, 0x94, 0x9b, 0x5e, 0x40, 0x72, 0xaa, 0xd1, 0xc6, 0x26, 0x00, 0xf6, 0xb2, 0x65, 0xc6, 0xe9, 0x06, 0x5b, 0x31, 0x49, 0x51, 0x35, 0x11, 0xfc, 0xfe, 0x3a, 0x2f, 0xa9, 0x77, 0x52, 0xb3, 0x38, 0x8c, 0x89, 0x45, 0x9b, 0x2b, 0xc9, 0x76, 0xec, 0x85, 0x47, 0x72, 0xbe, 0x7e, 0xd9, 0x64, 0xe5, 0x9e, 0xf7, 0x03, 0x55, 0x68, 0xff, 0xd5, 0xf2, 0x4f, 0xa8, 0xfd, 0x0d, 0xc9, 0x78, 0x7f, 0x20, 0x16, 0x2b, 0x7d, 0x13, 0x3a, 0xd4, 0x60, 0xec, 0x97, 0x27, 0x07, 0xd4, 0x68, 0x6d, 0xa1, 0x30, 0x1a, 0x2e, 0x1b, 0x3b, 0x0f, 0x16, 0x25, 0xcb, 0x32, 0x3c, 0xd2, 0xed, 0xb8, 0x33, 0x32, 0xc9, 0x19, 0x35, 0xd3, 0x23, 0x2d, 0x28, 0xcf, 0xd2, 0x3b, 0x41, 0x2d, 0xf0, 0xd5, 0xcf, 0xcb, 0x1f, 0xf7, 0x31, 0x22, 0xff, 0x29, 0x16, 0xce, 0x2b, 0x12, 0x1f, 0x37, 0xfc, 0xb4, 0xc2, 0xda, 0xe7, 0x15, 0x0d, 0xea, 0x08, 0xe7, 0xb9, 0x2e, 0xf9, 0x1c, 0xf2, 0xbe, 0x21, 0xc2, 0x0c, 0xec, 0xf3, 0x1f, 0x48, 0x4a, 0xdf, 0xc3, 0xbf, 0xd1, 0xd5, 0xe5, 0x2f, 0xce, 0x1b, 0xb5, 0xda, 0xef, 0xe9, 0x46, 0xdd, 0xdf, 0xcf, 0xee, 0x0c, 0xf8, 0xd0, 0x43, 0x3a, 0xe9, 0x0c, 0xe8, 0x0e, 0xbb, 0x36, 0x21, 0x25, 0x02, 0x18, 0xe4, 0x11, 0x03, 0xd1, 0x4b, 0x34, 0xd1, 0xfa, 0xf7, 0xf5, 0xfd, 0x16, 0xf1, 0x1d, 0xf9, 0xd4, 0xd1, 0x11, 0x26, 0xb8, 0x23, 0x3c, 0xd6, 0x1e, 0x32, 0xee, 0xf1, 0xcc, 0x36, 0xd8, 0x1a, 0xf9, 0xde, 0xc7, 0x1e, 0x0f, 0xe0, 0x41, 0xf6, 0xcc, 0xd2, 0x19, 0xeb, 0xe2, 0xea, 0xe2, 0x10, 0x14, 0x0b, 0xf9, 0xfa, 0x1b, 0x4d, 0xcc, 0x19, 0x39, 0x8a, 0x81, 0xdd, 0x8f, 0xdb, 0xcf, 0x15, 0xe2, 0xc6, 0x42, 0xc4, 0xef, 0xb2, 0x3e, 0xd0, 0x09, 0xb0, 0x13, 0x3e, 0x19, 0xc0, 0x10, 0x13, 0xc7, 0x3f, 0xac, 0x08, 0x12, 0xab, 0x22, 0x3b, 0x57, 0xe6, 0xa2, 0x21, 0xd3, 0x27, 0x2d, 0xf6, 0x1f, 0xca, 0x09, 0xff, 0xe3, 0xe5, 0xd7, 0x35, 0xd3, 0xad, 0xbe, 0xdc, 0x96, 0x30, 0xcc, 0xf1, 0x0b, 0xa8, 0xb9, 0xc5, 0xd3, 0xe4, 0xfd, 0x0d, 0x11, 0xa1, 0x27, 0xfa, 0xfa, 0x3e, 0x3a, 0xcf, 0xd1, 0x26, 0xd3, 0x34, 0xbb, 0xad, 0x0f, 0xb6, 0x45, 0x29, 0x21, 0x28, 0xeb, 0xed, 0x41, 0x15, 0xcc, 0xb9, 0x9d, 0x3b, 0x9a, 0x32, 0x42, 0xec, 0xe8, 0xc8, 0x2d, 0x02, 0xc3, 0x01, 0xf7, 0xd2, 0x66, 0x45, 0x41, 0xfe, 0x2e, 0xac, 0xe8, 0xc2, 0xc4, 0xc3, 0xaa, 0x45, 0x2f, 0xa9, 0x3a, 0x29, 0xdf, 0x05, 0x32, 0x9f, 0x40, 0x17, 0x47, 0xcc, 0xd2, 0xf6, 0xaa, 0x25, 0xc5, 0xfc, 0xd3, 0x13, 0xe3, 0xe8, 0xa4, 0xb8, 0xb5, 0xaf, 0x57, 0xfa, 0xef, 0x02, 0xe6, 0xa9, 0xc3, 0x21, 0x3e, 0xf6, 0xc7, 0xc1, 0x05, 0xb8, 0xd3, 0xae, 0xeb, 0x7f, 0xa5, 0x7b, 0x70, 0x0f, 0x29, 0xde, 0x4a, 0xce, 0xbe, 0x9e, 0xac, 0xbf, 0x14, 0x13, 0xc8, 0x67, 0xba, 0xc1, 0x2c, 0x09, 0xbd, 0x21, 0x0e, 0xbb, 0x0e, 0x0e, 0xf2, 0xe0, 0xc4, 0xb8, 0xc7, 0xbf, 0x62, 0xcb, 0x41, 0xd7, 0x2e, 0xb5, 0x51, 0x34, 0x1f, 0x0c, 0x3d, 0x48, 0x25, 0x37, 0x50, 0x39, 0x22, 0xb2, 0x20, 0xe4, 0xd1, 0xbf, 0x3b, 0x2a, 0x39, 0x9a, 0x40, 0xff, 0x18, 0x99, 0xce, 0xb5, 0xee, 0xac, 0xf4, 0x24, 0xff, 0x37, 0x3e, 0x12, 0xdf, 0xd6, 0xcc, 0xed, 0xdd, 0x1f, 0xe9, 0xb6, 0x10, 0xbc, 0xd9, 0x9e, 0x0f, 0xa0, 0x3a, 0x1b, 0x1f, 0x91, 0xdf, 0x20, 0xc7, 0xdf, 0x9f, 0x19, 0x3f, 0x02, 0x8e, 0xe2, 0xf2, 0xa5, 0x0b, 0xf9, 0xc6, 0xbb, 0xb5, 0x04, 0x88, 0x97, 0xce, 0x0b, 0x6b, 0x9f, 0xfc, 0x21, 0xd3, 0xaf, 0x38, 0x3a, 0xc4, 0xa3, 0xf3, 0x98, 0xf2, 0x07, 0xfd, 0x3b, 0x29, 0x3b, 0x3f, 0xb7, 0x1b, 0xf3, 0x28, 0x1a, 0xf3, 0x19, 0xff, 0x3f, 0x8d, 0xc6, 0x9a, 0x45, 0x50, 0x3d, 0xc7, 0xd9, 0x88, 0x10, 0xe6, 0x2d, 0x4b, 0xf4, 0xce, 0x95, 0xaa, 0xf0, 0xaa, 0xf4, 0x7f, 0xaf, 0xea, 0x02, 0xd4, 0x96, 0x18, 0xdc, 0xc8, 0x4d, 0xeb, 0x58, 0x21, 0x24, 0x3e, 0x38, 0x17, 0x53, 0xf7, 0xff, 0x54, 0xed, 0xbe, 0x15, 0xa7, 0xcf, 0x2d, 0x12, 0x14, 0xf9, 0x04, 0x2b, 0xe5, 0x29, 0x4f, 0xcd, 0x15, 0x14, 0xf6, 0x2a, 0x35, 0x0f, 0xf0, 0x3c, 0x32, 0xe7, 0x11, 0x2f, 0xfb, 0xde, 0x33, 0xe4, 0xfd, 0x9a, 0xcf, 0xd6, 0x0b, 0x17, 0x41, 0xed, 0x4b, 0x26, 0x30, 0xd2, 0x32, 0x49, 0xcb, 0x28, 0x0f, 0xdf, 0x4b, 0x46, 0xf6, 0x3e, 0xd0, 0xe6, 0xea, 0x21, 0x05, 0xbd, 0xae, 0x09, 0xd0, 0x56, 0x51, 0x9f, 0x03, 0xd7, 0xa5, 0xfe, 0x54, 0x3f, 0xfd, 0x20, 0xcb, 0x0e, 0xb3, 0xe3, 0x04, 0x02, 0xe7, 0xef, 0xf7, 0xb9, 0x29, 0xbd, 0x1c, 0x5a, 0xd8, 0x0b, 0x36, 0x16, 0xf6, 0x0c, 0x45, 0x2b, 0x37, 0x30, 0x51, 0xf3, 0xb8, 0xf7, 0x18, 0x4b, 0xb9, 0x2e, 0x1b, 0x19, 0x1a, 0xde, 0xfa, 0xdd, 0xd2, 0xdb, 0xc0, 0x0a, 0xb1, 0x2e, 0xcd, 0xf1, 0xfe, 0x81, 0x1c, 0x4d, 0xd5, 0x20, 0xf3, 0x28, 0x37, 0xd0, 0x3b, 0xea, 0x0c, 0xef, 0x3f, 0x0c, 0x3f, 0xa7, 0x20, 0x2b, 0xca, 0xb9, 0x3d, 0x08, 0xd6, 0x05, 0x40, 0xeb, 0x31, 0xd3, 0xaa, 0xbf, 0x12, 0xb5, 0xf3, 0xf8, 0xf0, 0xa1, 0xbc, 0x0d, 0x1b, 0xb1, 0xed, 0xec, 0xf9, 0x1e, 0x5d, 0xd3, 0x25, 0x07, 0x67, 0xf4, 0x23, 0xbd, 0x98, 0xdf, 0x60, 0xca, 0xd5, 0xa7, 0xea, 0x2b, 0xba, 0x24, 0xbf, 0xdf, 0xb3, 0xef, 0x77, 0xb0, 0x44, 0x39, 0x18, 0xd8, 0x08, 0x33, 0x16, 0x1e, 0xdb, 0x8f, 0x21, 0xde, 0xdf, 0x71, 0x73, 0xe2, 0xec, 0xa0, 0xd1, 0xd2, 0xe1, 0xb6, 0xb9, 0x91, 0x4a, 0x27, 0x4a, 0xb2, 0xb1, 0x1b, 0x64, 0xb1, 0x14, 0x8a, 0x33, 0xcf, 0xf1, 0x41, 0x79, 0xf2, 0x03, 0xfb, 0x2f, 0xac, 0x5b, 0x6b, 0xb8, 0x37, 0x88, 0x42, 0xb3, 0xdf, 0x6c, 0xee, 0x00, 0xd0, 0x95, 0xe0, 0x44, 0xfc, 0x42, 0x0c, 0xf5, 0xfd, 0xd0, 0xf2, 0xf8, 0x23, 0x24, 0xa3, 0x69, 0x87, 0xbc, 0x96, 0xe9, 0x46, 0xf9, 0x51, 0xa5, 0xac, 0x87, 0x32, 0x31, 0x1e, 0x62, 0x5e, 0x43, 0x9b, 0xce, 0xdc, 0x3e, 0xf2, 0x6b, 0xc2, 0xb8, 0x90, 0x12, 0x56, 0x4b, 0x79, 0xc5, 0x0f, 0x7f, 0xb5, 0x2a, 0xb5, 0xfb, 0x6c, 0x3d, 0x87, 0x3e, 0xc0, 0x91, 0x25, 0x9f, 0x1d, 0xfa, 0xc2, 0xe9, 0x2a, 0xbd, 0xf6, 0xbf, 0x36, 0x33, 0x38, 0xe4, 0xfb, 0xc7, 0xfd, 0x18, 0xe5, 0x07, 0x22, 0xf2, 0xea, 0xd2, 0xdc, 0xca, 0xe3, 0x26, 0x28, 0xe3, 0xc7, 0x03, 0x28, 0x18, 0x3f, 0x05, 0x18, 0xd4, 0xb5, 0xee, 0x34, 0xc7, 0xf0, 0x17, 0xc3, 0x2c, 0xf6, 0xee, 0xb7, 0x25, 0x2d, 0xff, 0xc8, 0xe6, 0x0a, 0xd6, 0x31, 0xd0, 0x18, 0xef, 0x0c, 0xd4, 0xe2, 0x00, 0x1f, 0xea, 0x17, 0xd3, 0xdb, 0x17, 0xba, 0x01, 0x03, 0xca, 0xee, 0x11, 0xd7, 0xff, 0x28, 0x23, 0x1e, 0xf1, 0x43, 0x19, 0xbc, 0xf6, 0xff, 0xb8, 0xba, 0xc4, 0x05, 0xf2, 0xf9, 0x14, 0x14, 0x20, 0x15, 0x31, 0xe8, 0x3d, 0xcd, 0x22, 0xca, 0xb9, 0xf1, 0xce, 0x1d, 0x22, 0x0c, 0x4c, 0xf5, 0xde, 0xe9, 0x0a, 0xdd, 0xdd, 0xc9, 0x22, 0xc2, 0x31, 0xbe, 0x19, 0x20, 0x06, 0xdf, 0xfb, 0xd3, 0xf7, 0x18, 0x12, 0x29, 0xc5, 0x34, 0x36, 0xeb, 0x0d, 0xd5, 0xb2, 0x0f, 0x07, 0x12, 0xd4, 0xd1, 0xed, 0x11, 0x22, 0x28, 0x1b, 0xbb, 0x5b, 0xca, 0xc7, 0xe8, 0xe4, 0x4f, 0xfb, 0xb1, 0x00, 0x81, 0xd7, 0xff, 0x9d, 0x52, 0x18, 0x20, 0x38, 0xae, 0xc6, 0x09, 0x9c, 0xaa, 0x1a, 0xeb, 0x55, 0x01, 0xbc, 0x82, 0x31, 0x59, 0xfd, 0x62, 0xe0, 0xa7, 0x02, 0x1a, 0x1b, 0xcf, 0xdc, 0x0f, 0xb7, 0xc0, 0xc5, 0x88, 0xff, 0x46, 0x2c, 0xe0, 0xf2, 0x37, 0x12, 0x8a, 0xc8, 0xae, 0xfc, 0xe1, 0x6d, 0xeb, 0xb3, 0x09, 0xfb, 0xb1, 0xed, 0xdd, 0x46, 0x95, 0x28, 0xc5, 0x16, 0x5c, 0x35, 0x61, 0x7b, 0xc5, 0x3d, 0x2a, 0x8f, 0x1c, 0x53, 0x0f, 0xe0, 0xe4, 0x11, 0xa9, 0x1c, 0xb6, 0xcf, 0xca, 0x11, 0x2a, 0xbc, 0x96, 0xeb, 0xe9, 0xec, 0x5a, 0x21, 0xd5, 0x37, 0xa3, 0xf6, 0xc1, 0x27, 0x2f, 0xe4, 0x10, 0x06, 0xb9, 0x0b, 0x09, 0xb4, 0x1b, 0x6e, 0x91, 0xae, 0xb6, 0x3c, 0x23, 0x45, 0xec, 0x37, 0xa0, 0xf7, 0x03, 0xfa, 0xac, 0xc8, 0xd0, 0x2f, 0xb4, 0xfe, 0x17, 0xc0, 0xa5, 0xa3, 0x16, 0x7f, 0x2a, 0x38, 0xe4, 0x98, 0x52, 0xb4, 0x1e, 0x64, 0xf3, 0xa7, 0xb7, 0x9b, 0xb5, 0x2e, 0xb1, 0x42, 0x88, 0x3a, 0x28, 0x3c, 0x3f, 0xd1, 0x18, 0x5c, 0xa5, 0x39, 0xf0, 0x1f, 0xa8, 0x79, 0x6b, 0x7b, 0x47, 0x0f, 0x48, 0xe8, 0xb9, 0x21, 0x5c, 0x38, 0xf0, 0x9e, 0xe4, 0xfe, 0xcb, 0xc5, 0x72, 0xd4, 0xfc, 0xb5, 0xe5, 0xc7, 0xeb, 0x4d, 0x39, 0x32, 0xd2, 0x26, 0xc2, 0xa2, 0x14, 0xde, 0xba, 0x6c, 0xa8, 0x2f, 0x94, 0xf7, 0x27, 0x6c, 0xb5, 0x01, 0xea, 0xa5, 0x97, 0x28, 0xf9, 0xb8, 0x49, 0xbe, 0xfd, 0xb1, 0x41, 0xd5, 0x5c, 0x26, 0xf9, 0x2f, 0xeb, 0xaf, 0xaa, 0xa2, 0xdf, 0xb8, 0x3f, 0xf3, 0x0c, 0xd1, 0xc5, 0xd5, 0x44, 0xf6, 0x11, 0xcd, 0xd8, 0xab, 0xa2, 0x22, 0x0f, 0x38, 0xe1, 0xd5, 0x02, 0xa4, 0x47, 0x1a, 0x41, 0xee, 0xec, 0x23, 0x2b, 0x9e, 0x95, 0xf8, 0x5a, 0x53, 0xf7, 0x40, 0xc1, 0xc3, 0x34, 0xd8, 0xad, 0x09, 0xf4, 0x69, 0xa5, 0x9d, 0xbf, 0xfc, 0x24, 0xd8, 0xaa, 0x05, 0xa7, 0x15, 0x91, 0xcb, 0xf0, 0x51, 0xd6, 0xf3, 0xc9, 0xe5, 0x9c, 0x4a, 0xc8, 0x3a, 0x18, 0x60, 0xb1, 0x9c, 0x07, 0xc9, 0xeb, 0xda, 0x29, 0x3c, 0xbf, 0xb3, 0x26, 0x21, 0x1a, 0xfd, 0xe5, 0x0c, 0xe7, 0xfb, 0xcc, 0x48, 0xce, 0xed, 0x26, 0xd2, 0x0a, 0xb4, 0xe7, 0xde, 0x15, 0x95, 0x85, 0xdf, 0xbd, 0xf4, 0xe5, 0x81, 0x15, 0xc1, 0xe2, 0x51, 0xbb, 0x1b, 0xd3, 0x2b, 0x4d, 0x2a, 0x43, 0xf1, 0x21, 0xc5, 0x1c, 0xca, 0x55, 0x4e, 0xbe, 0x27, 0x0b, 0xe5, 0xd5, 0x26, 0x3e, 0xd3, 0xf8, 0xee, 0x41, 0x25, 0x24, 0xb3, 0xce, 0xc9, 0x4a, 0x4e, 0x06, 0xe9, 0xff, 0xcf, 0x09, 0xb8, 0x16, 0x29, 0xe3, 0xbd, 0xef, 0xf3, 0xf6, 0x48, 0x36, 0x31, 0xed, 0xc3, 0x08, 0x07, 0x32, 0xd0, 0xe6, 0xc1, 0x38, 0xf5, 0xb3, 0xd7, 0x0b, 0xf0, 0xed, 0xe6, 0x47, 0xed, 0xdf, 0xcd, 0xd5, 0x28, 0xf2, 0x15, 0xdf, 0x2c, 0x28, 0x00, 0x5d, 0x2e, 0xc4, 0xf4, 0x40, 0x0b, 0x2d, 0xce, 0x1a, 0xbc, 0xe5, 0xbe, 0xc0, 0x40, 0x3a, 0xd0, 0xd9, 0x19, 0x47, 0x2e, 0x0c, 0x14, 0x4d, 0xc3, 0xdd, 0xeb, 0x00, 0xdf, 0x02, 0xe6, 0xc3, 0x0a, 0x42, 0xcc, 0x31, 0x3e, 0xc3, 0xbd, 0x39, 0x53, 0x16, 0x36, 0xf6, 0xbe, 0x46, 0x42, 0x3f, 0x64, 0x4a, 0x3b, 0xf9, 0xf1, 0xd1, 0xc8, 0xcc, 0xd7, 0xf5, 0xdd, 0x40, 0x3e, 0x45, 0x4f, 0x24, 0xf2, 0xf7, 0xb6, 0x48, 0x2b, 0x53, 0x0c, 0x21, 0x3b, 0xb7, 0x69, 0xfc, 0xdd, 0x54, 0x7f, 0x07, 0x6a, 0x26, 0xc3, 0x56, 0x0d, 0x4d, 0xdc, 0x5d, 0x3b, 0x1f, 0x46, 0x0b, 0x9d, 0xc1, 0x6c, 0x1a, 0x1a, 0xcc, 0xc0, 0x2d, 0x8d, 0xfb, 0xc3, 0xd1, 0x17, 0xa4, 0x4e, 0xc5, 0x09, 0xe9, 0x75, 0xc7, 0x58, 0x0d, 0xf6, 0xf7, 0x19, 0xc1, 0xf6, 0x3c, 0xc5, 0xc8, 0x32, 0xf3, 0x1b, 0x4a, 0xc3, 0x3b, 0x28, 0x5b, 0x28, 0x56, 0x15, 0x71, 0xd5, 0xf9, 0x78, 0x1b, 0x66, 0xa6, 0x48, 0x70, 0xc3, 0xae, 0x6f, 0x53, 0x30, 0x4b, 0x29, 0xc6, 0x01, 0x58, 0xce, 0x4e, 0x46, 0xf8, 0x9d, 0x43, 0x10, 0x34, 0x52, 0x33, 0x12, 0xaa, 0xa2, 0xf6, 0x69, 0xda, 0xe1, 0x19, 0xff, 0xdd, 0xf1, 0xdc, 0x03, 0xb1, 0x1d, 0x5b, 0x23, 0xc9, 0x0c, 0x40, 0xfc, 0x3a, 0x22, 0x34, 0xba, 0xeb, 0xb9, 0x33, 0x53, 0x4c, 0xce, 0x29, 0x21, 0x1e, 0xe9, 0xb2, 0x49, 0xc5, 0xb6, 0xae, 0x55, 0xf5, 0xd0, 0xaf, 0x29, 0xcb, 0x11, 0x8e, 0xf0, 0x18, 0xfd, 0x3b, 0x54, 0x26, 0xce, 0xba, 0x86, 0x08, 0x27, 0xc6, 0xd0, 0xfc, 0x22, 0xa4, 0x9d, 0x0b, 0x4c, 0x6b, 0x45, 0xd2, 0x1c, 0x81, 0x88, 0xf4, 0xf7, 0xa9, 0x08, 0x74, 0xf0, 0xdb, 0x65, 0xb3, 0x5d, 0xb7, 0xc3, 0x22, 0xdb, 0xf4, 0xb7, 0x33, 0xcd, 0xe6, 0xc9, 0x58, 0x97, 0x47, 0xf0, 0x0b, 0x1e, 0xe2, 0x0f, 0xdc, 0xec, 0xbd, 0x17, 0xcf, 0x2c, 0x22, 0xbe, 0xe9, 0x4c, 0xe9, 0x3c, 0x24, 0xfe, 0xce, 0xa1, 0xa5, 0x0d, 0x38, 0xf9, 0xf6, 0x51, 0xa1, 0xf5, 0x3e, 0x8e, 0x23, 0xe5, 0x1a, 0x4a, 0xec, 0x41, 0x42, 0xe1, 0xc5, 0x24, 0x08, 0xec, 0xf7, 0xe0, 0x59, 0x3f, 0x17, 0xbb, 0x20, 0xb1, 0x4b, 0xc3, 0x1e, 0xca, 0x9c, 0x2c, 0xf8, 0xc3, 0x01, 0xd3, 0xa2, 0x10, 0xce, 0xfc, 0x12, 0x06, 0xb0, 0xeb, 0xdd, 0xa5, 0x96, 0xb9, 0x1e, 0x3a, 0xa4, 0xd0, 0x3d, 0xeb, 0xaa, 0x8e, 0x1f, 0x32, 0xc9, 0x24, 0x9f, 0x50, 0x8c, 0x98, 0x26, 0xb2, 0xca, 0x22, 0x1d, 0xd2, 0xe9, 0xf4, 0x08, 0xfc, 0x46, 0x9a, 0xc4, 0x2f, 0xa0, 0x02, 0xfa, 0x72, 0x21, 0x1a, 0xb8, 0x91, 0x05, 0x13, 0xaa, 0xcf, 0x01, 0x1b, 0x46, 0x46, 0xcf, 0xf3, 0x0e, 0x4a, 0x09, 0xdc, 0x3b, 0xc3, 0x0b, 0x3d, 0xd8, 0xf9, 0x2e, 0x0a, 0xf7, 0x09, 0x8f, 0x4c, 0x7f, 0x07, 0x04, 0x43, 0x39, 0xe3, 0xca, 0x35, 0xe0, 0x14, 0x00, 0xc2, 0xba, 0x3d, 0x25, 0x33, 0x42, 0xd3, 0x28, 0xfc, 0x1a, 0x0e, 0x19, 0xdc, 0x38, 0x33, 0x3d, 0xce, 0x1a, 0x08, 0xe3, 0xfd, 0xfa, 0x12, 0xd9, 0x39, 0xfa, 0x51, 0x26, 0xfc, 0xcc, 0x0f, 0x1a, 0xdb, 0xb8, 0x06, 0x25, 0xfb, 0x4e, 0xf3, 0xc4, 0x30, 0xe8, 0xdf, 0x21, 0x47, 0x44, 0xeb, 0x3f, 0xc0, 0x03, 0x0d, 0x3c, 0x11, 0xe0, 0xfd, 0xd4, 0xc2, 0x0f, 0xe1, 0xfa, 0x46, 0xd9, 0xd0, 0x33, 0xdb, 0x1c, 0x36, 0x11, 0x1f, 0xe4, 0x46, 0x19, 0x39, 0xb8, 0xc9, 0xea, 0xc3, 0x02, 0x0a, 0x06, 0xd2, 0xb7, 0x2c, 0xda, 0xeb, 0x1a, 0x27, 0xc3, 0xde, 0x12, 0xee, 0xe9, 0x0d, 0x05, 0x3c, 0x2f, 0x2c, 0xe6, 0xea, 0x3b, 0xf3, 0x3d, 0xe4, 0x11, 0xc6, 0xc8, 0x11, 0xce, 0x3a, 0xdb, 0xfd, 0xdb, 0x14, 0xc8, 0xda, 0x4c, 0xeb, 0xf1, 0xc2, 0xbe, 0xc3, 0xbe, 0x26, 0x3c, 0x07, 0xfd, 0x02, 0xba, 0x3b, 0xc3, 0x24, 0xee, 0x40, 0xfb, 0xcb, 0xd6, 0xdd, 0xcf, 0x3d, 0x07, 0xd1, 0x10, 0xee, 0xb0, 0xa2, 0x11, 0xfa, 0x1b, 0xa3, 0x9b, 0xff, 0xa2, 0xe2, 0x81, 0xe1, 0xe1, 0x48, 0xfc, 0xb4, 0x0b, 0xa9, 0x4f, 0x1f, 0x13, 0x91, 0x2f, 0xf0, 0xd9, 0x3c, 0x36, 0x1c, 0xbd, 0x39, 0x61, 0x52, 0x23, 0x04, 0xce, 0x14, 0x2d, 0x5a, 0x99, 0x69, 0x5e, 0x6f, 0xaa, 0x9a, 0x03, 0x09, 0xd5, 0x27, 0xf1, 0xd1, 0xbf, 0xcb, 0xd9, 0x9c, 0x33, 0xfc, 0x41, 0xbd, 0x20, 0x1b, 0x53, 0x36, 0xda, 0x03, 0xfc, 0x38, 0xd2, 0xa6, 0xc0, 0xda, 0xb7, 0x61, 0x53, 0xbf, 0x0a, 0xec, 0x2a, 0x02, 0xec, 0x4e, 0x71, 0x14, 0x5a, 0x40, 0x6a, 0xe8, 0x9b, 0xbf, 0x03, 0xa6, 0xe7, 0x2b, 0xc4, 0x10, 0xa5, 0x59, 0xa1, 0x00, 0x4d, 0x24, 0x02, 0xdd, 0x2a, 0x0a, 0x2f, 0x47, 0x99, 0xeb, 0x54, 0xa5, 0x5f, 0x2d, 0xf0, 0xd3, 0xad, 0xa0, 0xde, 0x20, 0xbf, 0x12, 0xf9, 0x48, 0xa9, 0xe4, 0x90, 0xa2, 0x2c, 0xf4, 0xbd, 0xe8, 0x5f, 0x70, 0xcd, 0xad, 0x0c, 0x3b, 0xba, 0xe0, 0x1b, 0x75, 0x24, 0x51, 0x3f, 0xcf, 0x32, 0x52, 0x3c, 0x74, 0xc5, 0x1b, 0x29, 0x89, 0x18, 0x63, 0xfb, 0xf4, 0xfb, 0xb8, 0xe9, 0x2b, 0x5a, 0x7f, 0x0a, 0x6f, 0x5f, 0xd4, 0x02, 0x02, 0x68, 0x77, 0xdb, 0xc9, 0x57, 0x26, 0xfb, 0xff, 0xff, 0x04, 0x00, 0x00, 0x00, 0x80, 0x00, 0x00, 0x00, 0xc4, 0x03, 0x00, 0x00, 0xca, 0x05, 0x00, 0x00, 0x29, 0xfe, 0xff, 0xff, 0x1e, 0x04, 0x00, 0x00, 0xa5, 0x03, 0x00, 0x00, 0x86, 0xfd, 0xff, 0xff, 0x9f, 0xfe, 0xff, 0xff, 0x19, 0x02, 0x00, 0x00, 0xc5, 0x02, 0x00, 0x00, 0xb1, 0x01, 0x00, 0x00, 0x21, 0x01, 0x00, 0x00, 0x27, 0x01, 0x00, 0x00, 0x8b, 0x03, 0x00, 0x00, 0x30, 0x03, 0x00, 0x00, 0xb1, 0x07, 0x00, 0x00, 0xa2, 0x03, 0x00, 0x00, 0xae, 0x01, 0x00, 0x00, 0x58, 0x01, 0x00, 0x00, 0x74, 0x03, 0x00, 0x00, 0xd2, 0x01, 0x00, 0x00, 0xf1, 0x02, 0x00, 0x00, 0x11, 0x04, 0x00, 0x00, 0xa9, 0x02, 0x00, 0x00, 0x44, 0x02, 0x00, 0x00, 0x62, 0x02, 0x00, 0x00, 0x7d, 0x04, 0x00, 0x00, 0x25, 0x03, 0x00, 0x00, 0x6a, 0x02, 0x00, 0x00, 0x5a, 0x04, 0x00, 0x00, 0x38, 0x02, 0x00, 0x00, 0xce, 0x00, 0x00, 0x00, 0x1d, 0x00, 0x00, 0x00, 0xb2, 0xfb, 0xff, 0xff, 0x04, 0x00, 0x00, 0x00, 0x00, 0x02, 0x00, 0x00, 0x02, 0xb9, 0x39, 0x44, 0x4b, 0xed, 0x30, 0x14, 0x44, 0x57, 0xc8, 0xd1, 0x15, 0xb1, 0x6e, 0xe7, 0xb4, 0x98, 0x77, 0x6e, 0x95, 0x93, 0xc2, 0x82, 0x81, 0x6a, 0x30, 0xdf, 0x72, 0xdd, 0x62, 0x38, 0x2f, 0x33, 0x6d, 0xec, 0x83, 0xd1, 0x8d, 0xfa, 0x69, 0xb4, 0xfe, 0xdb, 0x94, 0x81, 0x34, 0x48, 0x4f, 0x4d, 0x14, 0x32, 0x11, 0x2d, 0x05, 0xa8, 0x98, 0xbd, 0x19, 0x42, 0x88, 0x0e, 0x92, 0xf6, 0xd8, 0xac, 0xef, 0xb4, 0xbb, 0x0d, 0x3b, 0xcd, 0x91, 0x9e, 0x32, 0xe2, 0x56, 0xa6, 0x28, 0xe3, 0x50, 0x45, 0x42, 0x1f, 0xd6, 0x13, 0x0f, 0x51, 0x1c, 0xf5, 0x81, 0x53, 0xf9, 0xc3, 0xb1, 0x10, 0x55, 0x20, 0xa5, 0x31, 0x0a, 0x3d, 0xce, 0x14, 0x44, 0x35, 0x83, 0x81, 0xa8, 0x62, 0x66, 0x72, 0xc6, 0x66, 0x50, 0x13, 0xcb, 0x66, 0xad, 0xb5, 0xe0, 0x01, 0x72, 0x21, 0x14, 0x39, 0x92, 0x07, 0xa2, 0x76, 0x5c, 0x0e, 0x77, 0xb7, 0x2e, 0xcb, 0x77, 0xd2, 0x01, 0x38, 0x04, 0x4a, 0x24, 0x4d, 0xbb, 0xfd, 0x78, 0xb5, 0xc2, 0xbb, 0x7f, 0x02, 0x76, 0x0e, 0x36, 0x42, 0x05, 0xa5, 0xd2, 0x7c, 0xed, 0x7f, 0x2f, 0xc6, 0xf3, 0x2e, 0x59, 0xef, 0xd5, 0x41, 0x9c, 0xe0, 0x5e, 0xf1, 0xb7, 0xe0, 0x4f, 0xd3, 0xc1, 0x03, 0x1c, 0xa0, 0xa6, 0x4c, 0x22, 0x2c, 0x09, 0x6e, 0x4e, 0xae, 0x8e, 0xc3, 0x8e, 0xcf, 0x42, 0x27, 0x37, 0xbf, 0xe8, 0x40, 0xda, 0x68, 0x63, 0x54, 0x46, 0x00, 0x18, 0xd9, 0x34, 0x5a, 0xbf, 0x61, 0xbb, 0x0d, 0xb2, 0x3b, 0x7f, 0x34, 0x1d, 0xd1, 0xbe, 0x9c, 0x41, 0xa3, 0x7c, 0x1f, 0x03, 0x52, 0x0f, 0x29, 0xcd, 0x24, 0x16, 0xb9, 0x12, 0xd2, 0x3d, 0xca, 0xc8, 0xfd, 0x45, 0xbc, 0xb9, 0x3b, 0x74, 0x15, 0x3b, 0xc8, 0x31, 0xe0, 0x00, 0x7f, 0x4d, 0x29, 0x92, 0x6b, 0x2c, 0xda, 0x9e, 0x94, 0x47, 0x5d, 0x93, 0x5d, 0x04, 0x73, 0x73, 0x53, 0x07, 0xac, 0x09, 0xb1, 0xa8, 0x77, 0xbe, 0x4b, 0x8f, 0x16, 0x52, 0x63, 0x4d, 0xa8, 0x7f, 0xdc, 0xee, 0xc8, 0x7f, 0x24, 0x9a, 0x6c, 0x5b, 0x38, 0x53, 0xce, 0x43, 0x35, 0x85, 0xdc, 0xf1, 0xe5, 0x9b, 0x3a, 0x86, 0x00, 0x31, 0xb8, 0x3f, 0xc8, 0x63, 0xe6, 0x74, 0x16, 0xa1, 0xad, 0xd7, 0x38, 0xac, 0x81, 0x42, 0xab, 0xec, 0xaf, 0x37, 0x9b, 0x10, 0x81, 0xda, 0x32, 0x1d, 0x02, 0xc5, 0xfe, 0x2c, 0xfc, 0xe5, 0x8e, 0x75, 0x07, 0x06, 0x35, 0x3c, 0x56, 0x92, 0x1e, 0xc8, 0x55, 0x1d, 0x56, 0x08, 0x8d, 0x6e, 0xb5, 0x9c, 0x3e, 0x27, 0xb9, 0x65, 0xf5, 0x89, 0x06, 0x5c, 0xab, 0x72, 0x09, 0x68, 0x69, 0x27, 0x5e, 0xe7, 0x31, 0xf6, 0x57, 0xcf, 0x4d, 0x5b, 0xa7, 0x08, 0x87, 0xff, 0x7f, 0x2f, 0xcc, 0x34, 0x10, 0x64, 0x04, 0xea, 0x7f, 0x55, 0xbb, 0x9b, 0xe5, 0xd2, 0xa1, 0x2c, 0xb4, 0x58, 0xea, 0x58, 0x22, 0x23, 0x9c, 0x2a, 0xac, 0x5d, 0xe5, 0x6c, 0x50, 0x17, 0x58, 0x28, 0xe0, 0x43, 0x1c, 0x45, 0xe3, 0x2e, 0x9b, 0xe0, 0xa3, 0xa6, 0xc3, 0xf4, 0x7f, 0x02, 0x28, 0x74, 0x3b, 0xdd, 0xc7, 0x30, 0xbf, 0x47, 0x55, 0xe3, 0x2c, 0xdc, 0x48, 0x2a, 0xc4, 0x0e, 0x53, 0xd6, 0xed, 0x10, 0xd4, 0x57, 0xb7, 0x57, 0xbd, 0x08, 0x82, 0x25, 0x87, 0x37, 0x2d, 0x12, 0x27, 0x5c, 0x9e, 0x81, 0x89, 0x6b, 0x07, 0x40, 0x67, 0xcf, 0x7b, 0x9c, 0xdf, 0x61, 0x95, 0x39, 0x5b, 0x79, 0x57, 0x8b, 0xa1, 0x35, 0xbd, 0xf0, 0x19, 0xe8, 0x24, 0x1d, 0x06, 0xfa, 0x11, 0x1a, 0xfd, 0x81, 0xe1, 0x0b, 0xdc, 0x38, 0x20, 0xe9, 0xdc, 0xef, 0x35, 0x30, 0x39, 0x26, 0xf1, 0xfe, 0x34, 0xf9, 0x0d, 0xf8, 0x13, 0xed, 0x2c, 0xbe, 0xfd, 0xff, 0xff, 0x04, 0x00, 0x00, 0x00, 0x40, 0x00, 0x00, 0x00, 0x7f, 0x00, 0x00, 0x00, 0x1e, 0xff, 0xff, 0xff, 0x7b, 0xff, 0xff, 0xff, 0xe2, 0x01, 0x00, 0x00, 0x8a, 0x00, 0x00, 0x00, 0x79, 0x00, 0x00, 0x00, 0x5b, 0x00, 0x00, 0x00, 0xb7, 0x01, 0x00, 0x00, 0x83, 0xff, 0xff, 0xff, 0x5d, 0xff, 0xff, 0xff, 0x17, 0x00, 0x00, 0x00, 0xbb, 0xff, 0xff, 0xff, 0x0d, 0x01, 0x00, 0x00, 0x98, 0x00, 0x00, 0x00, 0xd8, 0xff, 0xff, 0xff, 0xc0, 0x00, 0x00, 0x00, 0x0a, 0xfe, 0xff, 0xff, 0x04, 0x00, 0x00, 0x00, 0x10, 0x00, 0x00, 0x00, 0x24, 0xfb, 0xc8, 0x5b, 0x1e, 0x64, 0x92, 0x2e, 0x8c, 0xe9, 0xcc, 0x7d, 0x72, 0xcd, 0xcb, 0x7f, 0x26, 0xfe, 0xff, 0xff, 0x04, 0x00, 0x00, 0x00, 0x04, 0x00, 0x00, 0x00, 0xd1, 0x00, 0x00, 0x00, 0x36, 0xfe, 0xff, 0xff, 0x04, 0x00, 0x00, 0x00, 0x04, 0x00, 0x00, 0x00, 0xa0, 0x00, 0x00, 0x00, 0x46, 0xfe, 0xff, 0xff, 0x04, 0x00, 0x00, 0x00, 0x04, 0x00, 0x00, 0x00, 0x01, 0x00, 0x00, 0x00, 0x56, 0xfe, 0xff, 0xff, 0x04, 0x00, 0x00, 0x00, 0x04, 0x00, 0x00, 0x00, 0x00, 0x00, 0x00, 0x00, 0x2c, 0xf2, 0xff, 0xff, 0x30, 0xf2, 0xff, 0xff, 0x0f, 0x00, 0x00, 0x00, 0x4d, 0x4c, 0x49, 0x52, 0x20, 0x43, 0x6f, 0x6e, 0x76, 0x65, 0x72, 0x74, 0x65, 0x64, 0x2e, 0x00, 0x01, 0x00, 0x00, 0x00, 0x14, 0x00, 0x00, 0x00, 0x00, 0x00, 0x0e, 0x00, 0x18, 0x00, 0x14, 0x00, 0x10, 0x00, 0x0c, 0x00, 0x08, 0x00, 0x04, 0x00, 0x0e, 0x00, 0x00, 0x00, 0x14, 0x00, 0x00, 0x00, 0x1c, 0x00, 0x00, 0x00, 0x1c, 0x02, 0x00, 0x00, 0x20, 0x02, 0x00, 0x00, 0x24, 0x02, 0x00, 0x00, 0x04, 0x00, 0x00, 0x00, 0x6d, 0x61, 0x69, 0x6e, 0x00, 0x00, 0x00, 0x00, 0x08, 0x00, 0x00, 0x00, 0xcc, 0x01, 0x00, 0x00, 0x6c, 0x01, 0x00, 0x00, 0x1c, 0x01, 0x00, 0x00, 0xf4, 0x00, 0x00, 0x00, 0xac, 0x00, 0x00, 0x00, 0x60, 0x00, 0x00, 0x00, 0x28, 0x00, 0x00, 0x00, 0x04, 0x00, 0x00, 0x00, 0x2a, 0xff, 0xff, 0xff, 0x0c, 0x00, 0x00, 0x00, 0x10, 0x00, 0x00, 0x00, 0x05, 0x00, 0x00, 0x00, 0x01, 0x00, 0x00, 0x00, 0x11, 0x00, 0x00, 0x00, 0x01, 0x00, 0x00, 0x00, 0x10, 0x00, 0x00, 0x00, 0x92, 0xff, 0xff, 0xff, 0x14, 0x00, 0x00, 0x00, 0x00, 0x00, 0x00, 0x08, 0x10, 0x00, 0x00, 0x00, 0x14, 0x00, 0x00, 0x00, 0x04, 0x00, 0x00, 0x00, 0xe0, 0xf2, 0xff, 0xff, 0x01, 0x00, 0x00, 0x00, 0x10, 0x00, 0x00, 0x00, 0x03, 0x00, 0x00, 0x00, 0x0f, 0x00, 0x00, 0x00, 0x05, 0x00, 0x00, 0x00, 0x04, 0x00, 0x00, 0x00, 0xc6, 0xff, 0xff, 0xff, 0x14, 0x00, 0x00, 0x00, 0x00, 0x00, 0x00, 0x08, 0x14, 0x00, 0x00, 0x00, 0x18, 0x00, 0x00, 0x00, 0x04, 0x00, 0x00, 0x00, 0xaa, 0xfe, 0xff, 0xff, 0x00, 0x00, 0x00, 0x01, 0x01, 0x00, 0x00, 0x00, 0x0f, 0x00, 0x00, 0x00, 0x03, 0x00, 0x00, 0x00, 0x0e, 0x00, 0x00, 0x00, 0x07, 0x00, 0x00, 0x00, 0x06, 0x00, 0x00, 0x00, 0x00, 0x00, 0x0e, 0x00, 0x18, 0x00, 0x14, 0x00, 0x10, 0x00, 0x0c, 0x00, 0x0b, 0x00, 0x04, 0x00, 0x0e, 0x00, 0x00, 0x00, 0x14, 0x00, 0x00, 0x00, 0x00, 0x00, 0x00, 0x08, 0x14, 0x00, 0x00, 0x00, 0x18, 0x00, 0x00, 0x00, 0x04, 0x00, 0x00, 0x00, 0xf2, 0xfe, 0xff, 0xff, 0x00, 0x00, 0x00, 0x01, 0x01, 0x00, 0x00, 0x00, 0x0e, 0x00, 0x00, 0x00, 0x03, 0x00, 0x00, 0x00, 0x0d, 0x00, 0x00, 0x00, 0x09, 0x00, 0x00, 0x00, 0x08, 0x00, 0x00, 0x00, 0x00, 0x00, 0x0a, 0x00, 0x10, 0x00, 0x0c, 0x00, 0x08, 0x00, 0x04, 0x00, 0x0a, 0x00, 0x00, 0x00, 0x0c, 0x00, 0x00, 0x00, 0x10, 0x00, 0x00, 0x00, 0x03, 0x00, 0x00, 0x00, 0x01, 0x00, 0x00, 0x00, 0x0d, 0x00, 0x00, 0x00, 0x02, 0x00, 0x00, 0x00, 0x00, 0x00, 0x00, 0x00, 0x0c, 0x00, 0x00, 0x00, 0xc2, 0xff, 0xff, 0xff, 0x1c, 0x00, 0x00, 0x00, 0x00, 0x00, 0x00, 0x3b, 0x1c, 0x00, 0x00, 0x00, 0x20, 0x00, 0x00, 0x00, 0x02, 0x00, 0x00, 0x00, 0x00, 0x00, 0x06, 0x00, 0x08, 0x00, 0x04, 0x00, 0x06, 0x00, 0x00, 0x00, 0x02, 0x00, 0x00, 0x00, 0x01, 0x00, 0x00, 0x00, 0x0c, 0x00, 0x00, 0x00, 0x02, 0x00, 0x00, 0x00, 0x0b, 0x00, 0x00, 0x00, 0x03, 0x00, 0x00, 0x00, 0x00, 0x00, 0x0e, 0x00, 0x1a, 0x00, 0x14, 0x00, 0x10, 0x00, 0x0c, 0x00, 0x0b, 0x00, 0x04, 0x00, 0x0e, 0x00, 0x00, 0x00, 0x24, 0x00, 0x00, 0x00, 0x00, 0x00, 0x00, 0x20, 0x24, 0x00, 0x00, 0x00, 0x28, 0x00, 0x00, 0x00, 0x01, 0x00, 0x00, 0x00, 0x00, 0x00, 0x0e, 0x00, 0x08, 0x00, 0x00, 0x00, 0x00, 0x00, 0x00, 0x00, 0x00, 0x00, 0x04, 0x00, 0x0e, 0x00, 0x00, 0x00, 0x01, 0x00, 0x00, 0x00, 0x01, 0x00, 0x00, 0x00, 0x0b, 0x00, 0x00, 0x00, 0x04, 0x00, 0x00, 0x00, 0x0a, 0x00, 0x00, 0x00, 0x01, 0x00, 0x00, 0x00, 0x02, 0x00, 0x00, 0x00, 0x02, 0x00, 0x00, 0x00, 0x00, 0x00, 0x0e, 0x00, 0x16, 0x00, 0x00, 0x00, 0x10, 0x00, 0x0c, 0x00, 0x0b, 0x00, 0x04, 0x00, 0x0e, 0x00, 0x00, 0x00, 0x18, 0x00, 0x00, 0x00, 0x00, 0x00, 0x00, 0x37, 0x18, 0x00, 0x00, 0x00, 0x1c, 0x00, 0x00, 0x00, 0x00, 0x00, 0x06, 0x00, 0x08, 0x00, 0x07, 0x00, 0x06, 0x00, 0x00, 0x00, 0x00, 0x00, 0x00, 0x02, 0x01, 0x00, 0x00, 0x00, 0x0a, 0x00, 0x00, 0x00, 0x01, 0x00, 0x00, 0x00, 0x00, 0x00, 0x00, 0x00, 0x01, 0x00, 0x00, 0x00, 0x11, 0x00, 0x00, 0x00, 0x01, 0x00, 0x00, 0x00, 0x00, 0x00, 0x00, 0x00, 0x12, 0x00, 0x00, 0x00, 0xa0, 0x0b, 0x00, 0x00, 0x44, 0x0b, 0x00, 0x00, 0xec, 0x0a, 0x00, 0x00, 0xb0, 0x0a, 0x00, 0x00, 0x50, 0x0a, 0x00, 0x00, 0xec, 0x09, 0x00, 0x00, 0xd8, 0x08, 0x00, 0x00, 0xbc, 0x07, 0x00, 0x00, 0xe8, 0x05, 0x00, 0x00, 0x0c, 0x04, 0x00, 0x00, 0xbc, 0x03, 0x00, 0x00, 0x68, 0x03, 0x00, 0x00, 0x10, 0x03, 0x00, 0x00, 0x8c, 0x02, 0x00, 0x00, 0xd8, 0x01, 0x00, 0x00, 0x1c, 0x01, 0x00, 0x00, 0x80, 0x00, 0x00, 0x00, 0x04, 0x00, 0x00, 0x00, 0xbe, 0xf4, 0xff, 0xff, 0x00, 0x00, 0x00, 0x01, 0x18, 0x00, 0x00, 0x00, 0x20, 0x00, 0x00, 0x00, 0x3c, 0x00, 0x00, 0x00, 0x12, 0x00, 0x00, 0x00, 0x00, 0x00, 0x00, 0x09, 0x50, 0x00, 0x00, 0x00, 0x02, 0x00, 0x00, 0x00, 0xff, 0xff, 0xff, 0xff, 0x01, 0x00, 0x00, 0x00, 0xa4, 0xf4, 0xff, 0xff, 0x08, 0x00, 0x00, 0x00, 0x10, 0x00, 0x00, 0x00, 0x01, 0x00, 0x00, 0x00, 0x80, 0xff, 0xff, 0xff, 0xff, 0xff, 0xff, 0xff, 0x01, 0x00, 0x00, 0x00, 0x00, 0x00, 0x80, 0x3b, 0x1b, 0x00, 0x00, 0x00, 0x53, 0x74, 0x61, 0x74, 0x65, 0x66, 0x75, 0x6c, 0x50, 0x61, 0x72, 0x74, 0x69, 0x74, 0x69, 0x6f, 0x6e, 0x65, 0x64, 0x43, 0x61, 0x6c, 0x6c, 0x5f, 0x31, 0x3a, 0x30, 0x00, 0x02, 0x00, 0x00, 0x00, 0x01, 0x00, 0x00, 0x00, 0x01, 0x00, 0x00, 0x00, 0x36, 0xf5, 0xff, 0xff, 0x00, 0x00, 0x00, 0x01, 0x18, 0x00, 0x00, 0x00, 0x20, 0x00, 0x00, 0x00, 0x3c, 0x00, 0x00, 0x00, 0x11, 0x00, 0x00, 0x00, 0x00, 0x00, 0x00, 0x09, 0x70, 0x00, 0x00, 0x00, 0x02, 0x00, 0x00, 0x00, 0xff, 0xff, 0xff, 0xff, 0x01, 0x00, 0x00, 0x00, 0x1c, 0xf5, 0xff, 0xff, 0x08, 0x00, 0x00, 0x00, 0x10, 0x00, 0x00, 0x00, 0x01, 0x00, 0x00, 0x00, 0xe2, 0xff, 0xff, 0xff, 0xff, 0xff, 0xff, 0xff, 0x01, 0x00, 0x00, 0x00, 0x0a, 0x52, 0x0a, 0x3e, 0x38, 0x00, 0x00, 0x00, 0x73, 0x65, 0x71, 0x75, 0x65, 0x6e, 0x74, 0x69, 0x61, 0x6c, 0x5f, 0x31, 0x2f, 0x64, 0x65, 0x6e, 0x73, 0x65, 0x5f, 0x32, 0x5f, 0x31, 0x2f, 0x4d, 0x61, 0x74, 0x4d, 0x75, 0x6c, 0x3b, 0x73, 0x65, 0x71, 0x75, 0x65, 0x6e, 0x74, 0x69, 0x61, 0x6c, 0x5f, 0x31, 0x2f, 0x64, 0x65, 0x6e, 0x73, 0x65, 0x5f, 0x32, 0x5f, 0x31, 0x2f, 0x41, 0x64, 0x64, 0x00, 0x00, 0x00, 0x00, 0x02, 0x00, 0x00, 0x00, 0x01, 0x00, 0x00, 0x00, 0x01, 0x00, 0x00, 0x00, 0xce, 0xf5, 0xff, 0xff, 0x00, 0x00, 0x00, 0x01, 0x18, 0x00, 0x00, 0x00, 0x20, 0x00, 0x00, 0x00, 0x3c, 0x00, 0x00, 0x00, 0x10, 0x00, 0x00, 0x00, 0x00, 0x00, 0x00, 0x09, 0x90, 0x00, 0x00, 0x00, 0x02, 0x00, 0x00, 0x00, 0xff, 0xff, 0xff, 0xff, 0x10, 0x00, 0x00, 0x00, 0xb4, 0xf5, 0xff, 0xff, 0x08, 0x00, 0x00, 0x00, 0x10, 0x00, 0x00, 0x00, 0x01, 0x00, 0x00, 0x00, 0x80, 0xff, 0xff, 0xff, 0xff, 0xff, 0xff, 0xff, 0x01, 0x00, 0x00, 0x00, 0x05, 0x05, 0x2e, 0x3d, 0x58, 0x00, 0x00, 0x00, 0x73, 0x65, 0x71, 0x75, 0x65, 0x6e, 0x74, 0x69, 0x61, 0x6c, 0x5f, 0x31, 0x2f, 0x64, 0x65, 0x6e, 0x73, 0x65, 0x5f, 0x31, 0x5f, 0x32, 0x2f, 0x4d, 0x61, 0x74, 0x4d, 0x75, 0x6c, 0x3b, 0x73, 0x65, 0x71, 0x75, 0x65, 0x6e, 0x74, 0x69, 0x61, 0x6c, 0x5f, 0x31, 0x2f, 0x64, 0x65, 0x6e, 0x73, 0x65, 0x5f, 0x31, 0x5f, 0x32, 0x2f, 0x52, 0x65, 0x6c, 0x75, 0x3b, 0x73, 0x65, 0x71, 0x75, 0x65, 0x6e, 0x74, 0x69, 0x61, 0x6c, 0x5f, 0x31, 0x2f, 0x64, 0x65, 0x6e, 0x73, 0x65, 0x5f, 0x31, 0x5f, 0x32, 0x2f, 0x42, 0x69, 0x61, 0x73, 0x41, 0x64, 0x64, 0x00, 0x00, 0x00, 0x00, 0x02, 0x00, 0x00, 0x00, 0x01, 0x00, 0x00, 0x00, 0x10, 0x00, 0x00, 0x00, 0x86, 0xf6, 0xff, 0xff, 0x00, 0x00, 0x00, 0x01, 0x18, 0x00, 0x00, 0x00, 0x20, 0x00, 0x00, 0x00, 0x3c, 0x00, 0x00, 0x00, 0x0f, 0x00, 0x00, 0x00, 0x00, 0x00, 0x00, 0x09, 0x88, 0x00, 0x00, 0x00, 0x02, 0x00, 0x00, 0x00, 0xff, 0xff, 0xff, 0xff, 0x20, 0x00, 0x00, 0x00, 0x6c, 0xf6, 0xff, 0xff, 0x08, 0x00, 0x00, 0x00, 0x10, 0x00, 0x00, 0x00, 0x01, 0x00, 0x00, 0x00, 0x80, 0xff, 0xff, 0xff, 0xff, 0xff, 0xff, 0xff, 0x01, 0x00, 0x00, 0x00, 0xb8, 0x21, 0x2b, 0x3d, 0x52, 0x00, 0x00, 0x00, 0x73, 0x65, 0x71, 0x75, 0x65, 0x6e, 0x74, 0x69, 0x61, 0x6c, 0x5f, 0x31, 0x2f, 0x64, 0x65, 0x6e, 0x73, 0x65, 0x5f, 0x31, 0x2f, 0x4d, 0x61, 0x74, 0x4d, 0x75, 0x6c, 0x3b, 0x73, 0x65, 0x71, 0x75, 0x65, 0x6e, 0x74, 0x69, 0x61, 0x6c, 0x5f, 0x31, 0x2f, 0x64, 0x65, 0x6e, 0x73, 0x65, 0x5f, 0x31, 0x2f, 0x52, 0x65, 0x6c, 0x75, 0x3b, 0x73, 0x65, 0x71, 0x75, 0x65, 0x6e, 0x74, 0x69, 0x61, 0x6c, 0x5f, 0x31, 0x2f, 0x64, 0x65, 0x6e, 0x73, 0x65, 0x5f, 0x31, 0x2f, 0x42, 0x69, 0x61, 0x73, 0x41, 0x64, 0x64, 0x00, 0x00, 0x02, 0x00, 0x00, 0x00, 0x01, 0x00, 0x00, 0x00, 0x20, 0x00, 0x00, 0x00, 0x36, 0xf7, 0xff, 0xff, 0x00, 0x00, 0x00, 0x01, 0x18, 0x00, 0x00, 0x00, 0x20, 0x00, 0x00, 0x00, 0x40, 0x00, 0x00, 0x00, 0x0e, 0x00, 0x00, 0x00, 0x00, 0x00, 0x00, 0x09, 0x58, 0x00, 0x00, 0x00, 0x02, 0x00, 0x00, 0x00, 0xff, 0xff, 0xff, 0xff, 0xa0, 0x00, 0x00, 0x00, 0x1c, 0xf7, 0xff, 0xff, 0x08, 0x00, 0x00, 0x00, 0x14, 0x00, 0x00, 0x00, 0x01, 0x00, 0x00, 0x00, 0x01, 0x00, 0x00, 0x00, 0x00, 0x00, 0x00, 0x00, 0x00, 0x00, 0x00, 0x00, 0x01, 0x00, 0x00, 0x00, 0xb1, 0x5e, 0xc5, 0x3c, 0x1e, 0x00, 0x00, 0x00, 0x73, 0x65, 0x71, 0x75, 0x65, 0x6e, 0x74, 0x69, 0x61, 0x6c, 0x5f, 0x31, 0x2f, 0x66, 0x6c, 0x61, 0x74, 0x74, 0x65, 0x6e, 0x5f, 0x31, 0x2f, 0x52, 0x65, 0x73, 0x68, 0x61, 0x70, 0x65, 0x00, 0x00, 0x02, 0x00, 0x00, 0x00, 0x01, 0x00, 0x00, 0x00, 0xa0, 0x00, 0x00, 0x00, 0x0e, 0xf8, 0xff, 0xff, 0x00, 0x00, 0x00, 0x01, 0x14, 0x00, 0x00, 0x00, 0x14, 0x00, 0x00, 0x00, 0x0d, 0x00, 0x00, 0x00, 0x00, 0x00, 0x00, 0x02, 0x34, 0x00, 0x00, 0x00, 0xf8, 0xf7, 0xff, 0xff, 0x24, 0x00, 0x00, 0x00, 0x73, 0x65, 0x71, 0x75, 0x65, 0x6e, 0x74, 0x69, 0x61, 0x6c, 0x5f, 0x31, 0x2f, 0x66, 0x6c, 0x61, 0x74, 0x74, 0x65, 0x6e, 0x5f, 0x31, 0x2f, 0x52, 0x65, 0x73, 0x68, 0x61, 0x70, 0x65, 0x2f, 0x73, 0x68, 0x61, 0x70, 0x65, 0x00, 0x00, 0x00, 0x00, 0x01, 0x00, 0x00, 0x00, 0x02, 0x00, 0x00, 0x00, 0x62, 0xf8, 0xff, 0xff, 0x00, 0x00, 0x00, 0x01, 0x14, 0x00, 0x00, 0x00, 0x14, 0x00, 0x00, 0x00, 0x0c, 0x00, 0x00, 0x00, 0x00, 0x00, 0x00, 0x02, 0x34, 0x00, 0x00, 0x00, 0x4c, 0xf8, 0xff, 0xff, 0x24, 0x00, 0x00, 0x00, 0x73, 0x65, 0x71, 0x75, 0x65, 0x6e, 0x74, 0x69, 0x61, 0x6c, 0x5f, 0x31, 0x2f, 0x66, 0x6c, 0x61, 0x74, 0x74, 0x65, 0x6e, 0x5f, 0x31, 0x2f, 0x73, 0x74, 0x72, 0x69, 0x64, 0x65, 0x64, 0x5f, 0x73, 0x6c, 0x69, 0x63, 0x65, 0x00, 0x00, 0x00, 0x00, 0x00, 0x00, 0x00, 0x00, 0xb2, 0xf8, 0xff, 0xff, 0x00, 0x00, 0x00, 0x01, 0x14, 0x00, 0x00, 0x00, 0x14, 0x00, 0x00, 0x00, 0x0b, 0x00, 0x00, 0x00, 0x00, 0x00, 0x00, 0x02, 0x2c, 0x00, 0x00, 0x00, 0x9c, 0xf8, 0xff, 0xff, 0x1c, 0x00, 0x00, 0x00, 0x73, 0x65, 0x71, 0x75, 0x65, 0x6e, 0x74, 0x69, 0x61, 0x6c, 0x5f, 0x31, 0x2f, 0x66, 0x6c, 0x61, 0x74, 0x74, 0x65, 0x6e, 0x5f, 0x31, 0x2f, 0x53, 0x68, 0x61, 0x70, 0x65, 0x00, 0x00, 0x00, 0x00, 0x01, 0x00, 0x00, 0x00, 0x03, 0x00, 0x00, 0x00, 0xfe, 0xf8, 0xff, 0xff, 0x00, 0x00, 0x00, 0x01, 0x14, 0x00, 0x00, 0x00, 0xa8, 0x01, 0x00, 0x00, 0x0a, 0x00, 0x00, 0x00, 0x00, 0x00, 0x00, 0x09, 0xb4, 0x01, 0x00, 0x00, 0x7c, 0xf8, 0xff, 0xff, 0x08, 0x00, 0x00, 0x00, 0x0c, 0x01, 0x00, 0x00, 0x20, 0x00, 0x00, 0x00, 0x00, 0x00, 0x00, 0x00, 0x00, 0x00, 0x00, 0x00, 0x00, 0x00, 0x00, 0x00, 0x00, 0x00, 0x00, 0x00, 0x00, 0x00, 0x00, 0x00, 0x00, 0x00, 0x00, 0x00, 0x00, 0x00, 0x00, 0x00, 0x00, 0x00, 0x00, 0x00, 0x00, 0x00, 0x00, 0x00, 0x00, 0x00, 0x00, 0x00, 0x00, 0x00, 0x00, 0x00, 0x00, 0x00, 0x00, 0x00, 0x00, 0x00, 0x00, 0x00, 0x00, 0x00, 0x00, 0x00, 0x00, 0x00, 0x00, 0x00, 0x00, 0x00, 0x00, 0x00, 0x00, 0x00, 0x00, 0x00, 0x00, 0x00, 0x00, 0x00, 0x00, 0x00, 0x00, 0x00, 0x00, 0x00, 0x00, 0x00, 0x00, 0x00, 0x00, 0x00, 0x00, 0x00, 0x00, 0x00, 0x00, 0x00, 0x00, 0x00, 0x00, 0x00, 0x00, 0x00, 0x00, 0x00, 0x00, 0x00, 0x00, 0x00, 0x00, 0x00, 0x00, 0x00, 0x00, 0x00, 0x00, 0x00, 0x00, 0x00, 0x00, 0x00, 0x00, 0x00, 0x00, 0x00, 0x00, 0x00, 0x00, 0x00, 0x00, 0x00, 0x00, 0x00, 0x00, 0x00, 0x00, 0x00, 0x00, 0x00, 0x00, 0x00, 0x00, 0x00, 0x00, 0x00, 0x00, 0x00, 0x00, 0x00, 0x00, 0x00, 0x00, 0x00, 0x00, 0x00, 0x00, 0x00, 0x00, 0x00, 0x00, 0x00, 0x00, 0x00, 0x00, 0x00, 0x00, 0x00, 0x00, 0x00, 0x00, 0x00, 0x00, 0x00, 0x00, 0x00, 0x00, 0x00, 0x00, 0x00, 0x00, 0x00, 0x00, 0x00, 0x00, 0x00, 0x00, 0x00, 0x00, 0x00, 0x00, 0x00, 0x00, 0x00, 0x00, 0x00, 0x00, 0x00, 0x00, 0x00, 0x00, 0x00, 0x00, 0x00, 0x00, 0x00, 0x00, 0x00, 0x00, 0x00, 0x00, 0x00, 0x00, 0x00, 0x00, 0x00, 0x00, 0x00, 0x00, 0x00, 0x00, 0x00, 0x00, 0x00, 0x00, 0x00, 0x00, 0x00, 0x00, 0x00, 0x00, 0x00, 0x00, 0x00, 0x00, 0x00, 0x00, 0x00, 0x00, 0x00, 0x00, 0x00, 0x00, 0x00, 0x00, 0x00, 0x00, 0x00, 0x00, 0x00, 0x00, 0x00, 0x00, 0x00, 0x00, 0x00, 0x00, 0x00, 0x00, 0x00, 0x00, 0x00, 0x00, 0x00, 0x00, 0x00, 0x00, 0x00, 0x20, 0x00, 0x00, 0x00, 0x71, 0x38, 0xf0, 0x3a, 0xde, 0x1c, 0x16, 0x3b, 0x3c, 0x2c, 0xe0, 0x3a, 0xb2, 0xd2, 0x06, 0x3b, 0x21, 0x37, 0xf6, 0x3a, 0xdc, 0x90, 0xda, 0x3a, 0x7e, 0xab, 0xd9, 0x3a, 0x6b, 0x07, 0x28, 0x3b, 0x78, 0xca, 0xcb, 0x3a, 0xc1, 0x19, 0x0c, 0x3b, 0x68, 0xe4, 0xfd, 0x3a, 0x73, 0x66, 0x0a, 0x3b, 0x33, 0x8e, 0xe2, 0x3a, 0xec, 0x01, 0xcb, 0x3a, 0x24, 0xd0, 0xe8, 0x3a, 0xeb, 0x30, 0xda, 0x3a, 0xef, 0x86, 0xdc, 0x3a, 0x88, 0x55, 0xf7, 0x3a, 0x8f, 0xfc, 0xc5, 0x3a, 0xe1, 0x49, 0x2e, 0x3b, 0x6c, 0xe7, 0x06, 0x3b, 0xbe, 0xdc, 0xfc, 0x3a, 0xce, 0x32, 0x0d, 0x3b, 0x13, 0x3c, 0xd6, 0x3a, 0x55, 0x63, 0x31, 0x3b, 0x73, 0xdb, 0xe0, 0x3a, 0x91, 0x99, 0xf7, 0x3a, 0xa0, 0xc5, 0x13, 0x3b, 0x47, 0xb2, 0xd6, 0x3a, 0x2e, 0x30, 0xe5, 0x3a, 0x6b, 0x81, 0x26, 0x3b, 0xec, 0xb4, 0xcf, 0x3a, 0x12, 0x00, 0x00, 0x00, 0x74, 0x66, 0x6c, 0x2e, 0x70, 0x73, 0x65, 0x75, 0x64, 0x6f, 0x5f, 0x71, 0x63, 0x6f, 0x6e, 0x73, 0x74, 0x35, 0x00, 0x00, 0x02, 0x00, 0x00, 0x00, 0x20, 0x00, 0x00, 0x00, 0xa0, 0x00, 0x00, 0x00, 0xd6, 0xfa, 0xff, 0xff, 0x00, 0x00, 0x00, 0x01, 0x14, 0x00, 0x00, 0x00, 0xa4, 0x01, 0x00, 0x00, 0x09, 0x00, 0x00, 0x00, 0x00, 0x00, 0x00, 0x02, 0xb0, 0x01, 0x00, 0x00, 0x54, 0xfa, 0xff, 0xff, 0x08, 0x00, 0x00, 0x00, 0x08, 0x01, 0x00, 0x00, 0x20, 0x00, 0x00, 0x00, 0x00, 0x00, 0x00, 0x00, 0x00, 0x00, 0x00, 0x00, 0x00, 0x00, 0x00, 0x00, 0x00, 0x00, 0x00, 0x00, 0x00, 0x00, 0x00, 0x00, 0x00, 0x00, 0x00, 0x00, 0x00, 0x00, 0x00, 0x00, 0x00, 0x00, 0x00, 0x00, 0x00, 0x00, 0x00, 0x00, 0x00, 0x00, 0x00, 0x00, 0x00, 0x00, 0x00, 0x00, 0x00, 0x00, 0x00, 0x00, 0x00, 0x00, 0x00, 0x00, 0x00, 0x00, 0x00, 0x00, 0x00, 0x00, 0x00, 0x00, 0x00, 0x00, 0x00, 0x00, 0x00, 0x00, 0x00, 0x00, 0x00, 0x00, 0x00, 0x00, 0x00, 0x00, 0x00, 0x00, 0x00, 0x00, 0x00, 0x00, 0x00, 0x00, 0x00, 0x00, 0x00, 0x00, 0x00, 0x00, 0x00, 0x00, 0x00, 0x00, 0x00, 0x00, 0x00, 0x00, 0x00, 0x00, 0x00, 0x00, 0x00, 0x00, 0x00, 0x00, 0x00, 0x00, 0x00, 0x00, 0x00, 0x00, 0x00, 0x00, 0x00, 0x00, 0x00, 0x00, 0x00, 0x00, 0x00, 0x00, 0x00, 0x00, 0x00, 0x00, 0x00, 0x00, 0x00, 0x00, 0x00, 0x00, 0x00, 0x00, 0x00, 0x00, 0x00, 0x00, 0x00, 0x00, 0x00, 0x00, 0x00, 0x00, 0x00, 0x00, 0x00, 0x00, 0x00, 0x00, 0x00, 0x00, 0x00, 0x00, 0x00, 0x00, 0x00, 0x00, 0x00, 0x00, 0x00, 0x00, 0x00, 0x00, 0x00, 0x00, 0x00, 0x00, 0x00, 0x00, 0x00, 0x00, 0x00, 0x00, 0x00, 0x00, 0x00, 0x00, 0x00, 0x00, 0x00, 0x00, 0x00, 0x00, 0x00, 0x00, 0x00, 0x00, 0x00, 0x00, 0x00, 0x00, 0x00, 0x00, 0x00, 0x00, 0x00, 0x00, 0x00, 0x00, 0x00, 0x00, 0x00, 0x00, 0x00, 0x00, 0x00, 0x00, 0x00, 0x00, 0x00, 0x00, 0x00, 0x00, 0x00, 0x00, 0x00, 0x00, 0x00, 0x00, 0x00, 0x00, 0x00, 0x00, 0x00, 0x00, 0x00, 0x00, 0x00, 0x00, 0x00, 0x00, 0x00, 0x00, 0x00, 0x00, 0x00, 0x00, 0x00, 0x00, 0x00, 0x00, 0x00, 0x00, 0x00, 0x00, 0x00, 0x00, 0x00, 0x00, 0x00, 0x00, 0x00, 0x00, 0x00, 0x00, 0x00, 0x00, 0x20, 0x00, 0x00, 0x00, 0x4a, 0x34, 0x39, 0x38, 0x7a, 0x77, 0x67, 0x38, 0xf5, 0xd4, 0x2c, 0x38, 0x03, 0xe4, 0x4f, 0x38, 0x7f, 0xd3, 0x3d, 0x38, 0x52, 0x82, 0x28, 0x38, 0x7b, 0xd1, 0x27, 0x38, 0xdc, 0x8b, 0x81, 0x38, 0x30, 0x1e, 0x1d, 0x38, 0x48, 0x07, 0x58, 0x38, 0xad, 0xbe, 0x43, 0x38, 0x10, 0x68, 0x55, 0x38, 0x3a, 0xab, 0x2e, 0x38, 0x92, 0x83, 0x1c, 0x38, 0x49, 0x7e, 0x33, 0x38, 0x5a, 0x38, 0x28, 0x38, 0x68, 0x05, 0x2a, 0x38, 0x4e, 0xb0, 0x3e, 0x38, 0x96, 0xa4, 0x18, 0x38, 0x52, 0x5f, 0x86, 0x38, 0xf9, 0x03, 0x50, 0x38, 0x66, 0xf3, 0x42, 0x38, 0xa6, 0xb8, 0x59, 0x38, 0x79, 0x2b, 0x25, 0x38, 0x0e, 0xc3, 0x88, 0x38, 0x0c, 0x5c, 0x2d, 0x38, 0xc2, 0xe4, 0x3e, 0x38, 0x7a, 0xdb, 0x63, 0x38, 0x9b, 0x86, 0x25, 0x38, 0xda, 0xb2, 0x30, 0x38, 0x2e, 0x5f, 0x80, 0x38, 0x0e, 0x23, 0x20, 0x38, 0x12, 0x00, 0x00, 0x00, 0x74, 0x66, 0x6c, 0x2e, 0x70, 0x73, 0x65, 0x75, 0x64, 0x6f, 0x5f, 0x71, 0x63, 0x6f, 0x6e, 0x73, 0x74, 0x34, 0x00, 0x00, 0x01, 0x00, 0x00, 0x00, 0x20, 0x00, 0x00, 0x00, 0xa6, 0xfc, 0xff, 0xff, 0x00, 0x00, 0x00, 0x01, 0x14, 0x00, 0x00, 0x00, 0xe8, 0x00, 0x00, 0x00, 0x08, 0x00, 0x00, 0x00, 0x00, 0x00, 0x00, 0x09, 0xf4, 0x00, 0x00, 0x00, 0x24, 0xfc, 0xff, 0xff, 0x08, 0x00, 0x00, 0x00, 0x8c, 0x00, 0x00, 0x00, 0x10, 0x00, 0x00, 0x00, 0x00, 0x00, 0x00, 0x00, 0x00, 0x00, 0x00, 0x00, 0x00, 0x00, 0x00, 0x00, 0x00, 0x00, 0x00, 0x00, 0x00, 0x00, 0x00, 0x00, 0x00, 0x00, 0x00, 0x00, 0x00, 0x00, 0x00, 0x00, 0x00, 0x00, 0x00, 0x00, 0x00, 0x00, 0x00, 0x00, 0x00, 0x00, 0x00, 0x00, 0x00, 0x00, 0x00, 0x00, 0x00, 0x00, 0x00, 0x00, 0x00, 0x00, 0x00, 0x00, 0x00, 0x00, 0x00, 0x00, 0x00, 0x00, 0x00, 0x00, 0x00, 0x00, 0x00, 0x00, 0x00, 0x00, 0x00, 0x00, 0x00, 0x00, 0x00, 0x00, 0x00, 0x00, 0x00, 0x00, 0x00, 0x00, 0x00, 0x00, 0x00, 0x00, 0x00, 0x00, 0x00, 0x00, 0x00, 0x00, 0x00, 0x00, 0x00, 0x00, 0x00, 0x00, 0x00, 0x00, 0x00, 0x00, 0x00, 0x00, 0x00, 0x00, 0x00, 0x00, 0x00, 0x00, 0x00, 0x00, 0x00, 0x00, 0x00, 0x00, 0x00, 0x00, 0x00, 0x00, 0x00, 0x00, 0x00, 0x00, 0x00, 0x00, 0x00, 0x00, 0x00, 0x00, 0x00, 0x00, 0x00, 0x00, 0x00, 0x00, 0x10, 0x00, 0x00, 0x00, 0x82, 0xcf, 0x3a, 0x3b, 0x24, 0xb5, 0x40, 0x3b, 0xd9, 0xca, 0x57, 0x3b, 0x86, 0xf7, 0x3e, 0x3b, 0x04, 0x17, 0x33, 0x3b, 0x91, 0x04, 0x65, 0x3b, 0x7b, 0x51, 0x69, 0x3b, 0xc7, 0xd9, 0x7f, 0x3b, 0x7e, 0xa8, 0x4b, 0x3b, 0xee, 0xae, 0x36, 0x3b, 0x7d, 0xe1, 0x3a, 0x3b, 0x5b, 0x4f, 0x3a, 0x3b, 0x99, 0x07, 0x56, 0x3b, 0x83, 0x44, 0x76, 0x3b, 0xdb, 0x3d, 0x40, 0x3b, 0x47, 0x3b, 0x09, 0x3c, 0x12, 0x00, 0x00, 0x00, 0x74, 0x66, 0x6c, 0x2e, 0x70, 0x73, 0x65, 0x75, 0x64, 0x6f, 0x5f, 0x71, 0x63, 0x6f, 0x6e, 0x73, 0x74, 0x33, 0x00, 0x00, 0x02, 0x00, 0x00, 0x00, 0x10, 0x00, 0x00, 0x00, 0x20, 0x00, 0x00, 0x00, 0xbe, 0xfd, 0xff, 0xff, 0x00, 0x00, 0x00, 0x01, 0x14, 0x00, 0x00, 0x00, 0xe4, 0x00, 0x00, 0x00, 0x07, 0x00, 0x00, 0x00, 0x00, 0x00, 0x00, 0x02, 0xf0, 0x00, 0x00, 0x00, 0x3c, 0xfd, 0xff, 0xff, 0x08, 0x00, 0x00, 0x00, 0x88, 0x00, 0x00, 0x00, 0x10, 0x00, 0x00, 0x00, 0x00, 0x00, 0x00, 0x00, 0x00, 0x00, 0x00, 0x00, 0x00, 0x00, 0x00, 0x00, 0x00, 0x00, 0x00, 0x00, 0x00, 0x00, 0x00, 0x00, 0x00, 0x00, 0x00, 0x00, 0x00, 0x00, 0x00, 0x00, 0x00, 0x00, 0x00, 0x00, 0x00, 0x00, 0x00, 0x00, 0x00, 0x00, 0x00, 0x00, 0x00, 0x00, 0x00, 0x00, 0x00, 0x00, 0x00, 0x00, 0x00, 0x00, 0x00, 0x00, 0x00, 0x00, 0x00, 0x00, 0x00, 0x00, 0x00, 0x00, 0x00, 0x00, 0x00, 0x00, 0x00, 0x00, 0x00, 0x00, 0x00, 0x00, 0x00, 0x00, 0x00, 0x00, 0x00, 0x00, 0x00, 0x00, 0x00, 0x00, 0x00, 0x00, 0x00, 0x00, 0x00, 0x00, 0x00, 0x00, 0x00, 0x00, 0x00, 0x00, 0x00, 0x00, 0x00, 0x00, 0x00, 0x00, 0x00, 0x00, 0x00, 0x00, 0x00, 0x00, 0x00, 0x00, 0x00, 0x00, 0x00, 0x00, 0x00, 0x00, 0x00, 0x00, 0x00, 0x00, 0x00, 0x00, 0x00, 0x00, 0x00, 0x00, 0x00, 0x00, 0x00, 0x00, 0x00, 0x00, 0x10, 0x00, 0x00, 0x00, 0x6e, 0xc2, 0xf9, 0x38, 0x61, 0xd2, 0x00, 0x39, 0xeb, 0x40, 0x10, 0x39, 0xfb, 0x50, 0xff, 0x38, 0xed, 0x6f, 0xef, 0x38, 0x37, 0x18, 0x19, 0x39, 0x28, 0xf8, 0x1b, 0x39, 0x2b, 0x08, 0x2b, 0x39, 0x5f, 0x24, 0x08, 0x39, 0xd2, 0x3d, 0xf4, 0x38, 0x78, 0xda, 0xf9, 0x38, 0x18, 0x17, 0xf9, 0x38, 0x44, 0x13, 0x0f, 0x39, 0x33, 0xa0, 0x24, 0x39, 0xa3, 0x82, 0x00, 0x39, 0x57, 0x79, 0xb7, 0x39, 0x12, 0x00, 0x00, 0x00, 0x74, 0x66, 0x6c, 0x2e, 0x70, 0x73, 0x65, 0x75, 0x64, 0x6f, 0x5f, 0x71, 0x63, 0x6f, 0x6e, 0x73, 0x74, 0x32, 0x00, 0x00, 0x01, 0x00, 0x00, 0x00, 0x10, 0x00, 0x00, 0x00, 0xce, 0xfe, 0xff, 0xff, 0x00, 0x00, 0x00, 0x01, 0x14, 0x00, 0x00, 0x00, 0x30, 0x00, 0x00, 0x00, 0x06, 0x00, 0x00, 0x00, 0x00, 0x00, 0x00, 0x09, 0x3c, 0x00, 0x00, 0x00, 0x4c, 0xfe, 0xff, 0xff, 0x08, 0x00, 0x00, 0x00, 0x10, 0x00, 0x00, 0x00, 0x01, 0x00, 0x00, 0x00, 0x00, 0x00, 0x00, 0x00, 0x00, 0x00, 0x00, 0x00, 0x01, 0x00, 0x00, 0x00, 0x9c, 0x8a, 0xa7, 0x3b, 0x12, 0x00, 0x00, 0x00, 0x74, 0x66, 0x6c, 0x2e, 0x70, 0x73, 0x65, 0x75, 0x64, 0x6f, 0x5f, 0x71, 0x63, 0x6f, 0x6e, 0x73, 0x74, 0x31, 0x00, 0x00, 0x02, 0x00, 0x00, 0x00, 0x01, 0x00, 0x00, 0x00, 0x10, 0x00, 0x00, 0x00, 0x2e, 0xff, 0xff, 0xff, 0x00, 0x00, 0x00, 0x01, 0x14, 0x00, 0x00, 0x00, 0x30, 0x00, 0x00, 0x00, 0x05, 0x00, 0x00, 0x00, 0x00, 0x00, 0x00, 0x02, 0x3c, 0x00, 0x00, 0x00, 0xac, 0xfe, 0xff, 0xff, 0x08, 0x00, 0x00, 0x00, 0x10, 0x00, 0x00, 0x00, 0x01, 0x00, 0x00, 0x00, 0x00, 0x00, 0x00, 0x00, 0x00, 0x00, 0x00, 0x00, 0x01, 0x00, 0x00, 0x00, 0xfe, 0xc6, 0x63, 0x39, 0x11, 0x00, 0x00, 0x00, 0x74, 0x66, 0x6c, 0x2e, 0x70, 0x73, 0x65, 0x75, 0x64, 0x6f, 0x5f, 0x71, 0x63, 0x6f, 0x6e, 0x73, 0x74, 0x00, 0x00, 0x00, 0x01, 0x00, 0x00, 0x00, 0x01, 0x00, 0x00, 0x00, 0x8a, 0xff, 0xff, 0xff, 0x00, 0x00, 0x00, 0x01, 0x14, 0x00, 0x00, 0x00, 0x14, 0x00, 0x00, 0x00, 0x04, 0x00, 0x00, 0x00, 0x00, 0x00, 0x00, 0x02, 0x1c, 0x00, 0x00, 0x00, 0x74, 0xff, 0xff, 0xff, 0x0f, 0x00, 0x00, 0x00, 0x61, 0x72, 0x69, 0x74, 0x68, 0x2e, 0x63, 0x6f, 0x6e, 0x73, 0x74, 0x61, 0x6e, 0x74, 0x32, 0x00, 0x00, 0x00, 0x00, 0x00, 0xc2, 0xff, 0xff, 0xff, 0x00, 0x00, 0x00, 0x01, 0x14, 0x00, 0x00, 0x00, 0x14, 0x00, 0x00, 0x00, 0x03, 0x00, 0x00, 0x00, 0x00, 0x00, 0x00, 0x02, 0x1c, 0x00, 0x00, 0x00, 0xac, 0xff, 0xff, 0xff, 0x0f, 0x00, 0x00, 0x00, 0x61, 0x72, 0x69, 0x74, 0x68, 0x2e, 0x63, 0x6f, 0x6e, 0x73, 0x74, 0x61, 0x6e, 0x74, 0x31, 0x00, 0x01, 0x00, 0x00, 0x00, 0x01, 0x00, 0x00, 0x00, 0x00, 0x00, 0x16, 0x00, 0x1c, 0x00, 0x18, 0x00, 0x17, 0x00, 0x10, 0x00, 0x0c, 0x00, 0x08, 0x00, 0x00, 0x00, 0x00, 0x00, 0x00, 0x00, 0x07, 0x00, 0x16, 0x00, 0x00, 0x00, 0x00, 0x00, 0x00, 0x01, 0x18, 0x00, 0x00, 0x00, 0x18, 0x00, 0x00, 0x00, 0x02, 0x00, 0x00, 0x00, 0x00, 0x00, 0x00, 0x02, 0x20, 0x00, 0x00, 0x00, 0x04, 0x00, 0x04, 0x00, 0x04, 0x00, 0x00, 0x00, 0x0e, 0x00, 0x00, 0x00, 0x61, 0x72, 0x69, 0x74, 0x68, 0x2e, 0x63, 0x6f, 0x6e, 0x73, 0x74, 0x61, 0x6e, 0x74, 0x00, 0x00, 0x01, 0x00, 0x00, 0x00, 0x01, 0x00, 0x00, 0x00, 0x00, 0x00, 0x16, 0x00, 0x20, 0x00, 0x1c, 0x00, 0x1b, 0x00, 0x14, 0x00, 0x10, 0x00, 0x0c, 0x00, 0x00, 0x00, 0x00, 0x00, 0x08, 0x00, 0x07, 0x00, 0x16, 0x00, 0x00, 0x00, 0x00, 0x00, 0x00, 0x01, 0x18, 0x00, 0x00, 0x00, 0x30, 0x00, 0x00, 0x00, 0x4c, 0x00, 0x00, 0x00, 0x01, 0x00, 0x00, 0x00, 0x00, 0x00, 0x00, 0x09, 0x64, 0x00, 0x00, 0x00, 0x03, 0x00, 0x00, 0x00, 0xff, 0xff, 0xff, 0xff, 0x14, 0x00, 0x00, 0x00, 0x08, 0x00, 0x00, 0x00, 0x0c, 0x00, 0x0c, 0x00, 0x00, 0x00, 0x00, 0x00, 0x08, 0x00, 0x04, 0x00, 0x0c, 0x00, 0x00, 0x00, 0x08, 0x00, 0x00, 0x00, 0x10, 0x00, 0x00, 0x00, 0x01, 0x00, 0x00, 0x00, 0x01, 0x00, 0x00, 0x00, 0x00, 0x00, 0x00, 0x00, 0x01, 0x00, 0x00, 0x00, 0xb1, 0x5e, 0xc5, 0x3c, 0x1e, 0x00, 0x00, 0x00, 0x73, 0x65, 0x72, 0x76, 0x69, 0x6e, 0x67, 0x5f, 0x64, 0x65, 0x66, 0x61, 0x75, 0x6c, 0x74, 0x5f, 0x6b, 0x65, 0x72, 0x61, 0x73, 0x5f, 0x74, 0x65, 0x6e, 0x73, 0x6f, 0x72, 0x3a, 0x30, 0x00, 0x00, 0x03, 0x00, 0x00, 0x00, 0x01, 0x00, 0x00, 0x00, 0x14, 0x00, 0x00, 0x00, 0x08, 0x00, 0x00, 0x00, 0x06, 0x00, 0x00, 0x00, 0x74, 0x00, 0x00, 0x00, 0x58, 0x00, 0x00, 0x00, 0x48, 0x00, 0x00, 0x00, 0x38, 0x00, 0x00, 0x00, 0x24, 0x00, 0x00, 0x00, 0x04, 0x00, 0x00, 0x00, 0xf0, 0xff, 0xff, 0xff, 0x0e, 0x00, 0x00, 0x00, 0x02, 0x00, 0x00, 0x00, 0x00, 0x00, 0x00, 0x0e, 0x0c, 0x00, 0x10, 0x00, 0x0f, 0x00, 0x00, 0x00, 0x08, 0x00, 0x04, 0x00, 0x0c, 0x00, 0x00, 0x00, 0x09, 0x00, 0x00, 0x00, 0x04, 0x00, 0x00, 0x00, 0x00, 0x00, 0x00, 0x09, 0xdc, 0xff, 0xff, 0xff, 0x16, 0x00, 0x00, 0x00, 0x00, 0x00, 0x00, 0x16, 0xe8, 0xff, 0xff, 0xff, 0x53, 0x00, 0x00, 0x00, 0x00, 0x00, 0x00, 0x53, 0xf4, 0xff, 0xff, 0xff, 0x2d, 0x00, 0x00, 0x00, 0x00, 0x00, 0x00, 0x2d, 0x0c, 0x00, 0x0c, 0x00, 0x0b, 0x00, 0x00, 0x00, 0x00, 0x00, 0x04, 0x00, 0x0c, 0x00, 0x00, 0x00, 0x4d, 0x00, 0x00, 0x00, 0x00, 0x00, 0x00, 0x4d };
const unsigned int model_len = 10440;

#endif // MODEL_H
